<pad>	0
<unk>	0
,	-3.21479
.	-3.6617
▁the	-3.67319
▁of	-3.85663
▁	-3.97054
:	-3.99138
s	-4.0571
▁and	-4.08443
▁patient	-4.17048
▁with	-4.25713
▁a	-4.45605
▁no	-4.5365
▁to	-4.57475
ing	-4.64186
▁for	-4.71219
ed	-4.83859
/	-4.89833
e	-4.90115
-	-4.92228
▁or	-5.03717
▁was	-5.05154
al	-5.05323
▁,	-5.09814
▁is	-5.10523
▁in	-5.12031
'	-5.17578
▁on	-5.21455
▁history	-5.27301
▁.	-5.42206
▁(	-5.50614
▁pain	-5.52199
t	-5.59939
p	-5.60315
)	-5.63518
▁s	-5.63601
▁-	-5.65729
▁any	-5.70637
y	-5.79319
▁note	-5.83463
▁not	-5.89081
c	-5.89533
▁at	-5.91214
o	-5.91496
▁signs	-5.92741
▁disease	-5.92797
▁[**	-5.95676
▁be	-5.96181
▁present	-5.97184
▁respiratory	-6.02171
▁there	-6.02646
▁acute	-6.03038
▁failure	-6.04946
ic	-6.05516
ve	-6.07308
on	-6.10712
▁chest	-6.11543
ly	-6.11989
▁evidence	-6.12499
▁de	-6.15125
▁as	-6.15338
▁pulmonary	-6.16963
▁type	-6.1936
▁chronic	-6.19496
▁symptoms	-6.19523
▁we	-6.23894
▁post	-6.25392
▁hypertension	-6.26092
▁has	-6.26814
▁follow	-6.27067
▁normal	-6.2714
▁recent	-6.2992
▁blood	-6.31681
denies	-6.32657
▁during	-6.33246
▁but	-6.33475
spit	-6.34038
▁given	-6.35034
;	-6.37662
d	-6.37663
▁c	-6.39192
▁he	-6.39908
▁will	-6.42103
▁that	-6.43617
▁left	-6.44365
▁target	-6.44937
▁section	-6.46735
▁by	-6.4753
▁examination	-6.47631
▁status	-6.47858
l	-6.48747
▁assessment	-6.48776
▁right	-6.50287
________________	-6.50868
▁stable	-6.53012
▁diagnosis	-6.53729
▁pneumonia	-6.54466
▁medical	-6.54701
▁---	-6.54714
er	-6.55827
▁discharge	-6.57092
▁this	-6.57173
without	-6.57547
▁an	-6.58666
▁infection	-6.58697
▁reveal	-6.58941
1	-6.59656
▁bleeding	-6.59965
▁heart	-6.61
▁from	-6.61001
▁she	-6.61333
ty	-6.61757
▁cardiac	-6.62661
▁severe	-6.62775
▁are	-6.63289
▁elevated	-6.63636
▁enti	-6.64901
▁noted	-6.66082
▁du	-6.66444
▁if	-6.66746
▁true	-6.67723
▁significant	-6.67791
▁edema	-6.69689
▁clinical	-6.70949
▁diabetes	-6.71429
▁wer	-6.72154
▁past	-6.72862
▁coronar	-6.75242
▁admission	-6.7584
▁risk	-6.76497
▁had	-6.76749
▁condition	-6.7716
en	-6.77922
us	-6.78071
▁h	-6.79532
▁abdominal	-6.81256
▁her	-6.81525
▁pt	-6.81869
▁requir	-6.83219
▁current	-6.83451
▁potential	-6.83672
▁pressure	-6.83732
▁ct	-6.84726
▁renal	-6.84938
▁after	-6.84989
▁monitoring	-6.85682
a	-6.87963
▁artery	-6.89034
▁low	-6.89852
▁secondary	-6.90096
▁experiencing	-6.91121
▁report	-6.91433
_______________	-6.91472
▁which	-6.91479
▁show	-6.91741
▁new	-6.91828
▁consistent	-6.92538
r	-6.93148
le	-6.93668
(	-6.93746
▁showed	-6.95519
▁plan	-6.96671
▁negati	-6.96831
trial	-6.97198
▁sepsis	-6.98033
▁fever	-6.98976
▁negative	-6.9905
▁multi	-6.99171
▁hospital	-7.00096
▁dysfunction	-7.00705
▁dyspnea	-7.00705
▁his	-7.01139
▁neurological	-7.02721
▁cough	-7.03665
▁admitt	-7.03924
ness	-7.05368
ce	-7.05593
▁reports	-7.0581
▁up	-7.07035
▁therapy	-7.07942
▁indication	-7.07944
▁course	-7.08757
▁w	-7.08878
▁**]	-7.09361
hospital	-7.09422
▁developing	-7.09995
▁mild	-7.10023
▁well	-7.10074
3	-7.10365
▁r	-7.11344
2	-7.11855
▁x	-7.12446
▁kidney	-7.1392
▁prior	-7.14807
▁concern	-7.15239
▁head	-7.16148
▁#	-7.16677
▁copd	-7.1673
▁bp	-7.17122
▁other	-7.17977
▁monitor	-7.18067
▁icu	-7.1844
▁name	-7.18817
▁includ	-7.20024
▁last	-7.20233
▁fluid	-7.20323
▁who	-7.20413
operative	-7.20711
▁breath	-7.2084
▁2	-7.21965
▁have	-7.22219
▁systolic	-7.22842
▁findings	-7.24262
▁out	-7.2458
▁fibrillation	-7.24628
▁increased	-7.25149
▁should	-7.25621
▁exam	-7.27075
▁further	-7.27115
▁bilateral	-7.27443
▁high	-7.27521
▁illness	-7.27626
▁pre	-7.27985
▁distress	-7.28638
▁physical	-7.28638
▁m	-7.28797
ould	-7.29662
ple	-7.3
▁remain	-7.30024
▁suggest	-7.30175
▁nausea	-7.30245
▁hemorrhage	-7.30416
▁seizure	-7.3056
▁gi	-7.30699
▁review	-7.30705
tic	-7.30892
m	-7.31672
▁management	-7.31757
▁levels	-7.32269
known	-7.32778
▁function	-7.32816
▁embolism	-7.32816
▁evaluation	-7.32817
i	-7.32854
▁procedure	-7.32857
▁year	-7.32868
▁episodes	-7.33121
▁b	-7.35397
▁injury	-7.36069
▁htn	-7.36648
▁lung	-7.37128
▁mellitus	-7.3718
▁developed	-7.37605
▁chf	-7.37761
▁absen	-7.37921
▁possibl	-7.38297
▁surgery	-7.38431
▁clear	-7.38607
▁closely	-7.39022
▁indicate	-7.39153
▁non	-7.40609
▁peripher	-7.41237
▁remains	-7.41918
▁small	-7.4291
▁changes	-7.42974
ular	-7.43168
▁persistent	-7.441
▁stroke	-7.44124
▁time	-7.44275
did	-7.44317
ent	-7.47425
▁ventilation	-7.47744
complicated	-7.48157
▁results	-7.48173
▁stenosis	-7.49008
3**]	-7.49583
▁imaging	-7.49637
▁over	-7.49785
▁support	-7.50044
es	-7.5065
▁short	-7.50889
▁medication	-7.51089
▁loss	-7.5218
▁likely	-7.52187
x	-7.52187
▁vital	-7.52396
▁mi	-7.52469
▁reported	-7.53016
▁skin	-7.54136
name	-7.54251
▁associat	-7.54255
▁presentation	-7.5437
▁l	-7.54588
▁congesti	-7.55237
▁complications	-7.55695
▁headache	-7.55752
▁p	-7.56054
▁hypotension	-7.56136
▁exhibit	-7.56811
▁observed	-7.56832
▁depression	-7.56836
▁transfer	-7.57648
▁old	-7.57916
▁d	-7.58553
up	-7.58756
▁syndrome	-7.59561
▁cad	-7.59709
▁diastolic	-7.60307
▁shock	-7.60964
▁whi	-7.61348
▁am	-7.61537
ation	-7.62197
n	-7.63782
▁reason	-7.63832
g	-7.64588
▁sub	-7.65147
▁recurren	-7.65208
▁having	-7.66038
▁soft	-7.66038
ince	-7.66176
▁within	-7.66408
or	-7.66441
ous	-7.6724
▁3	-7.67372
▁found	-7.67536
▁cardiovascular	-7.67537
h	-7.67552
▁dm	-7.67856
▁septic	-7.68293
▁treatment	-7.68294
▁ment	-7.68385
▁continued	-7.68451
▁back	-7.69167
f	-7.69527
▁stay	-7.70601
▁cerebr	-7.70645
ar	-7.70793
ortic	-7.70824
(-)	-7.71063
▁close	-7.71167
▁postoperative	-7.71477
able	-7.71614
▁ma	-7.72071
▁dizziness	-7.7217
▁hyperlipidemia	-7.72171
▁f	-7.7243
▁bacteremia	-7.72964
▁1	-7.73325
▁care	-7.735
▁exacerbation	-7.73633
▁anemia	-7.73764
st	-7.7388
▁systems	-7.74037
▁throughout	-7.74574
▁veno	-7.75407
▁ventric	-7.75654
though	-7.75974
surgical	-7.76203
▁vomiting	-7.76374
v	-7.77288
▁diabet	-7.77796
▁fracture	-7.77803
▁exertion	-7.77862
▁rhythm	-7.77887
▁lab	-7.78642
▁man	-7.78871
▁managed	-7.78922
▁ml	-7.78959
2**]	-7.78984
▁bowel	-7.7955
▁general	-7.7955
▁mechanical	-7.80421
▁cva	-7.8045
▁pe	-7.8154
b	-7.82903
▁abdomen	-7.83014
▁rate	-7.83043
▁rul	-7.83248
▁related	-7.83815
▁creatinine	-7.83899
▁fatigue	-7.84792
▁infarction	-7.84796
▁cabg	-7.85006
▁include	-7.85425
▁process	-7.85622
▁re	-7.85689
▁response	-7.85692
▁neck	-7.85753
jecti	-7.86376
▁oxygen	-7.86551
▁hospitalization	-7.86601
in	-7.86743
▁scan	-7.87144
▁feeling	-7.87668
▁e	-7.87771
ity	-7.87791
▁neuro	-7.8825
▁antibiotics	-7.88403
▁stent	-7.88632
▁discharged	-7.89092
▁sounds	-7.89379
▁un	-7.89665
5	-7.89736
▁experience	-7.90154
▁active	-7.90323
▁suggesti	-7.90339
▁extremities	-7.91275
▁underlying	-7.91275
▁intra	-7.91974
▁site	-7.92239
▁rash	-7.92239
▁bleed	-7.92244
▁consider	-7.92354
▁though	-7.92506
▁also	-7.93214
▁experienced	-7.93381
▁trauma	-7.93422
▁worsening	-7.93428
▁hemodynamic	-7.93434
▁+	-7.93703
▁necessitat	-7.93939
▁family	-7.94188
▁states	-7.94196
▁contrast	-7.94254
▁ch	-7.94505
▁complaint	-7.94684
▁day	-7.95001
▁placement	-7.95185
▁iv	-7.95572
4**]	-7.95971
▁initial	-7.96138
▁intubated	-7.96178
▁subsequent	-7.96178
▁decreased	-7.96271
last	-7.96327
▁onset	-7.96844
▁al	-7.96869
▁activity	-7.97188
▁future	-7.97188
▁ischemic	-7.97188
▁bronchitis	-7.97189
▁chills	-7.97276
ive	-7.97943
▁swelling	-7.98243
▁bilaterally	-7.98658
▁develop	-7.98832
▁obstructi	-7.99014
▁laboratory	-7.9924
▁angina	-7.9924
▁per	-7.99295
▁continue	-7.99449
▁it	-8.00216
▁malaise	-8.00281
▁diagnosed	-8.00786
▁now	-8.01064
tical	-8.01104
▁presence	-8.01334
▁vascular	-8.01466
▁anticoagulation	-8.02398
▁medications	-8.03135
▁stools	-8.0316
u	-8.03169
▁delirium	-8.03473
7**]	-8.04427
▁pleur	-8.04495
▁hyperglycemia	-8.0456
▁watch	-8.0456
▁o	-8.04598
7	-8.04628
▁episode	-8.05081
▁4	-8.0531
▁car	-8.05589
▁ulcer	-8.05645
▁hypothe	-8.05659
0	-8.05757
▁controlled	-8.0608
▁brief	-8.0677
▁abuse	-8.0677
▁hypertensive	-8.06781
▁ent	-8.0682
prolo	-8.06851
6	-8.07261
nged	-8.07372
▁insulin	-8.0738
▁weakness	-8.07894
▁home	-8.07894
red	-8.08097
▁use	-8.09185
ory	-8.09503
▁effusion	-8.09602
old	-8.09947
▁discomfort	-8.10179
▁myocardi	-8.10179
▁neuropathy	-8.10216
▁pm	-8.10451
▁however	-8.11342
▁vulnerab	-8.11355
▁control	-8.11389
▁large	-8.12519
▁period	-8.12519
▁team	-8.12519
▁primary	-8.12528
▁alter	-8.12566
▁setting	-8.13165
▁accident	-8.13709
▁emesis	-8.13709
▁glucose	-8.13709
▁possibility	-8.13709
▁tachycardia	-8.13709
▁confusion	-8.13714
▁upper	-8.13731
ovascular	-8.13741
▁seen	-8.13775
▁afib	-8.13845
▁moderate	-8.13858
▁documented	-8.13858
▁disorder	-8.1434
eal	-8.14405
▁week	-8.14468
▁n	-8.14652
▁summary	-8.14914
▁lungs	-8.15022
▁&	-8.15204
▁po	-8.15484
▁regular	-8.15903
may	-8.16077
▁observation	-8.16133
▁echocardiogram	-8.16147
▁9	-8.16344
▁development	-8.17381
▁emphysema	-8.17404
▁palpitations	-8.17423
▁alcohol	-8.18378
4	-8.18488
▁asthma	-8.18547
ized	-8.18592
▁oriented	-8.18618
6**]	-8.19168
▁t	-8.19379
▁balance	-8.19884
▁action	-8.19886
▁treated	-8.1996
▁cath	-8.20031
▁system	-8.20729
▁stage	-8.21106
▁some	-8.21178
▁complete	-8.21552
▁ef	-8.21716
▁i	-8.22082
▁anxiety	-8.22465
▁so	-8.22554
▁started	-8.22608
▁con	-8.23609
▁mass	-8.23761
▁esrd	-8.2378
▁intact	-8.2378
▁limits	-8.2378
▁6	-8.24411
▁workup	-8.25138
▁;	-8.2521
▁confirmed	-8.2549
▁monitored	-8.26099
▁immediate	-8.26241
1**]	-8.26268
▁thorough	-8.26465
▁ecg	-8.26465
▁urine	-8.26471
▁ongoing	-8.26519
▁wh	-8.26526
▁lobe	-8.26542
ray	-8.26649
▁yo	-8.2672
9**]	-8.26979
▁currently	-8.27394
5**]	-8.27503
▁elevation	-8.27835
▁extremity	-8.27837
hx	-8.27907
▁deep	-8.2793
un	-8.28391
8**]	-8.28403
▁assess	-8.28411
year	-8.28748
▁5	-8.28843
▁temperature	-8.29224
▁vertigo	-8.29224
otid	-8.29231
▁drainage	-8.29231
▁cord	-8.29257
▁deficits	-8.29359
▁end	-8.29407
▁cervical	-8.29559
1)	-8.29681
▁ischemia	-8.30632
▁thrombosis	-8.30632
▁attribut	-8.30632
▁female	-8.30636
▁their	-8.30638
ief	-8.30651
▁unit	-8.30668
w	-8.31011
re	-8.31395
ight	-8.31547
▁abd	-8.31647
▁lack	-8.31768
▁tissue	-8.32061
▁g	-8.32145
it	-8.32411
▁ext	-8.32485
ni	-8.32793
sided	-8.33112
▁anterior	-8.33862
▁place	-8.34128
▁hr	-8.34318
at	-8.34881
▁auscultation	-8.34981
▁hematoma	-8.34981
▁orthopnea	-8.34981
▁dry	-8.35154
▁does	-8.35365
k	-8.35855
ng	-8.35938
▁complain	-8.361
▁cause	-8.36255
▁overload	-8.36473
▁liver	-8.36473
▁urinary	-8.36567
▁grade	-8.36747
▁inter	-8.3714
▁complaints	-8.37602
transfer	-8.3764
prefix	-8.37988
▁alert	-8.3799
▁infectio	-8.38023
▁you	-8.38031
▁myalgias	-8.38083
8	-8.38192
▁underw	-8.38235
▁today	-8.38471
▁impression	-8.38589
▁7	-8.39055
mg	-8.39328
▁change	-8.39404
▁wall	-8.39534
▁tenderness	-8.3954
▁brain	-8.39572
dependent	-8.39841
acquir	-8.40711
%	-8.40775
▁community	-8.41089
▁joint	-8.41089
▁two	-8.41089
▁syncope	-8.41195
▁valve	-8.41284
about	-8.41654
▁stress	-8.42678
▁coumadin	-8.42694
▁improved	-8.42716
▁leg	-8.42718
▁mri	-8.42746
▁issues	-8.4286
▁heent	-8.43117
▁cultures	-8.43199
▁notable	-8.43255
▁ii	-8.43367
op	-8.435
first	-8.44026
▁numb	-8.44201
rum	-8.44282
▁careful	-8.44304
ary	-8.44321
▁final	-8.44325
▁positive	-8.4443
▁fevers	-8.45137
▁seri	-8.45217
▁y	-8.45541
radiology	-8.45694
clip	-8.45699
doctor	-8.45929
productive	-8.45929
▁increasing	-8.45929
▁lymphadenopathy	-8.45929
▁woman	-8.45929
▁unremarkable	-8.4593
▁consultation	-8.45946
▁daily	-8.46008
▁sinus	-8.46231
▁hours	-8.46322
▁needed	-8.46491
▁cyanosis	-8.47596
▁etiology	-8.47596
▁hemoptysis	-8.47596
▁intubation	-8.47596
▁tumor	-8.47596
▁advised	-8.4762
▁cxr	-8.47633
oap	-8.47714
te	-8.47743
▁indicated	-8.48657
▁ed	-8.48946
▁**	-8.49015
▁nstemi	-8.4929
▁regimen	-8.4929
▁tract	-8.4929
▁radiation	-8.49309
▁20	-8.49462
▁state	-8.49545
▁maintain	-8.50209
▁oral	-8.50376
ter	-8.50534
▁parox	-8.51015
procedure	-8.51042
▁air	-8.51546
ma	-8.51989
▁hemorrhag	-8.52133
▁previous	-8.52545
disposition	-8.52638
▁complex	-8.52769
▁removal	-8.52769
▁saturation	-8.52769
▁troponin	-8.52769
▁emergenc	-8.5277
▁erythema	-8.52772
▁osh	-8.52781
▁level	-8.5294
▁total	-8.5315
▁ventilator	-8.53268
▁bypass	-8.53402
),	-8.53901
▁spin	-8.53951
▁rule	-8.54119
▁supple	-8.54545
▁hematemesis	-8.54555
▁wheezing	-8.54555
▁suspicion	-8.54568
▁hernia	-8.54579
▁antibiotic	-8.54636
▁dist	-8.54714
▁event	-8.54778
▁male	-8.548
▁clip	-8.54806
▁st	-8.5505
▁tube	-8.55404
▁sclera	-8.556
lf	-8.55855
▁ablation	-8.56373
▁sleep	-8.56373
▁early	-8.56373
▁pneumothorax	-8.56373
smal	-8.5641
▁suspected	-8.56499
▁sob	-8.56582
▁diarrhea	-8.56602
▁esophag	-8.56812
▁raise	-8.5695
▁/	-8.57974
ectomy	-8.58197
▁fem	-8.58221
▁encephalopathy	-8.58225
▁wheezes	-8.58225
▁instability	-8.58225
▁specifically	-8.58225
▁rales	-8.58229
▁inflammation	-8.58243
▁epi	-8.58256
▁labs	-8.58328
▁evaluate	-8.5835
▁poorly	-8.58368
ne	-8.58476
▁gastri	-8.58496
▁red	-8.58576
based	-8.58684
▁mg	-8.58802
▁lesions	-8.58968
▁graft	-8.59102
▁hyper	-8.59618
2:	-8.59651
▁occasional	-8.60112
▁denied	-8.60114
ion	-8.60115
▁tia	-8.60139
▁thorac	-8.60276
▁cv	-8.60541
jection	-8.60572
▁mus	-8.60709
▁days	-8.61558
▁v	-8.61595
tensive	-8.61985
▁posterior	-8.62035
▁performed	-8.62035
▁throat	-8.62035
▁inflammat	-8.62037
▁particular	-8.6204
▁fall	-8.62241
▁concerning	-8.6237
▁placed	-8.62386
▁nose	-8.6279
▁return	-8.63159
▁spo	-8.63828
gastri	-8.63935
▁elective	-8.63995
▁ketoacidosis	-8.63995
▁upset	-8.63996
▁interval	-8.63996
▁above	-8.63996
▁regurgitation	-8.63998
▁uncontrolled	-8.6401
▁aspiration	-8.64012
month	-8.64083
stage	-8.6414
▁one	-8.64419
id	-8.64747
▁weight	-8.6506
▁nause	-8.65895
▁investigation	-8.65995
▁lead	-8.65996
▁etoh	-8.65996
▁resolved	-8.66004
▁2+	-8.66037
▁warm	-8.66152
▁50	-8.66359
▁obesity	-8.66364
▁initially	-8.66444
▁ob	-8.66481
▁focal	-8.6696
▁required	-8.67074
th	-8.6711
0**]	-8.67262
▁gastr	-8.67406
om	-8.67587
▁10	-8.68013
▁wound	-8.68036
▁mood	-8.68036
related	-8.68064
▁clot	-8.68068
▁rca	-8.68077
spect	-8.68081
▁ago	-8.6816
▁varices	-8.682
▁vir	-8.68382
▁years	-8.68559
▁gerd	-8.68652
▁le	-8.6866
▁1.	-8.6877
▁then	-8.69217
▁pulses	-8.69261
▁vitals	-8.69404
▁ex	-8.69723
▁hemiparesis	-8.70119
▁insufficiency	-8.70119
▁dka	-8.7012
▁than	-8.7012
▁diet	-8.70121
▁jvp	-8.70163
▁cirrhosis	-8.70181
▁pro	-8.70193
▁count	-8.70221
▁lum	-8.70372
▁sever	-8.71434
▁mr	-8.71491
▁require	-8.71942
▁vigilan	-8.72157
gastrointestinal	-8.72247
▁irregular	-8.72247
▁nocturnal	-8.72247
▁hypoxemi	-8.7225
▁24	-8.72376
▁predispose	-8.72465
▁q	-8.72598
no	-8.73178
▁assessed	-8.73495
▁organ	-8.73698
▁test	-8.73876
operatively	-8.74073
▁included	-8.74167
▁hemoglobin	-8.74421
▁sputum	-8.74421
▁differential	-8.74425
▁intracranial	-8.74451
▁full	-8.74476
▁initiated	-8.74504
**	-8.74756
renal	-8.74777
▁long	-8.74832
▁electrolyte	-8.74866
out	-8.7489
▁mid	-8.7507
▁ulcers	-8.75674
▁considered	-8.76255
▁anticipate	-8.76314
▁brea	-8.7662
▁arrest	-8.76643
▁lifestyle	-8.76643
▁vasopressor	-8.76643
▁initiation	-8.76645
▁recovery	-8.76685
▁peritone	-8.76709
▁cancer	-8.76838
il	-8.7709
▁eye	-8.77167
tion	-8.77448
▁line	-8.7767
▁afebrile	-8.77704
▁effusions	-8.78068
▁murmurs	-8.78342
▁cardio	-8.7891
▁anicteric	-8.78916
▁context	-8.78916
▁department	-8.78916
▁repeat	-8.78916
▁thromboembolism	-8.78916
▁prevent	-8.78916
▁intermittent	-8.78917
▁irritation	-8.78919
▁compression	-8.79048
▁warranted	-8.79465
▁murmur	-8.79784
▁5)	-8.80391
lly	-8.8044
▁res	-8.80501
ia	-8.80697
9	-8.80698
▁hemodynamics	-8.80728
▁need	-8.81045
▁fraction	-8.81242
▁studies	-8.81242
▁vision	-8.81242
▁hyponatremia	-8.81248
▁lightheadedness	-8.81253
▁anti	-8.81287
▁received	-8.81374
▁breathing	-8.81391
▁u	-8.81451
▁radiology	-8.81581
lack	-8.81729
▁factors	-8.81762
▁intervention	-8.81845
▁com	-8.82675
▁progress	-8.82677
ant	-8.83021
▁[**211	-8.83303
▁events	-8.83529
namepattern	-8.83623
▁abnormalities	-8.83623
▁pericardi	-8.83623
▁rebound	-8.83623
▁svg	-8.83623
▁lcx	-8.83623
▁frontal	-8.83624
▁dermatitis	-8.83625
▁micu	-8.83658
▁pmh	-8.83664
▁demonstrated	-8.83968
ol	-8.8402
▁stool	-8.84323
▁indicat	-8.84476
4)	-8.84793
▁ad	-8.84888
▁ra	-8.85329
▁gu	-8.85991
’	-8.86062
▁coffee	-8.86062
▁nephropathy	-8.86062
▁pyrexia	-8.86062
▁guarding	-8.86062
▁repair	-8.86062
▁dysuria	-8.86062
▁stasis	-8.86062
▁catheterization	-8.86088
▁perfused	-8.86134
2,	-8.86199
ial	-8.86251
ine	-8.86254
▁extensive	-8.86392
▁cent	-8.8643
▁90	-8.86589
▁ca	-8.86609
▁lad	-8.86696
▁arrhythmia	-8.86784
▁result	-8.86826
▁mm	-8.86876
he	-8.87138
febrile	-8.8738
▁broad	-8.88561
▁exposure	-8.88562
▁unstable	-8.88562
▁diffuse	-8.88562
▁hpi	-8.88564
▁improvement	-8.88565
▁administration	-8.88589
▁[**210	-8.88589
▁[**216	-8.8859
▁pleuriti	-8.88756
▁recurrence	-8.88871
▁first	-8.88974
▁cardiomyopathy	-8.89025
▁less	-8.89068
▁hy	-8.89193
ground	-8.89224
▁seizures	-8.89343
▁months	-8.89981
▁port	-8.90738
▁ab	-8.90947
j	-8.90962
ral	-8.91076
▁drain	-8.91118
▁retro	-8.91125
▁atelectasis	-8.91126
▁lasix	-8.91126
▁visual	-8.91126
▁pump	-8.91126
▁pancreatitis	-8.91126
▁chart	-8.91126
▁stemi	-8.91126
▁aggressive	-8.91129
▁thigh	-8.91131
▁arm	-8.91135
▁readings	-8.91136
▁ekg	-8.91139
▁rrr	-8.91176
▁output	-8.91202
▁identified	-8.9122
▁cap	-8.91523
tral	-8.91807
ally	-8.92044
ium	-8.92242
age	-8.92834
ble	-8.93207
▁all	-8.93333
▁1)	-8.93349
ha	-8.93391
▁pulm	-8.93527
▁pneumoni	-8.93657
cranial	-8.9372
▁aphasia	-8.93757
▁inguinal	-8.93757
▁stomach	-8.93757
▁unlikely	-8.93757
▁both	-8.9378
▁dose	-8.94028
29**]	-8.94055
▁bms	-8.94098
lt	-8.94111
induced	-8.94234
▁obstruction	-8.94341
▁infiltrates	-8.94491
▁2,	-8.94873
▁intraoperative	-8.94873
▁weeks	-8.94929
▁do	-8.94965
ially	-8.96401
▁clubbing	-8.9646
▁leukocytosis	-8.9646
▁orthosta	-8.9646
▁three	-8.9646
▁ultrasound	-8.9646
▁source	-8.9646
▁catheter	-8.9646
▁point	-8.9646
▁instructions	-8.96462
▁beta	-8.96468
▁airway	-8.96477
▁35	-8.96527
▁wean	-8.96577
ist	-8.96578
▁hypoxemia	-8.96589
ility	-8.96592
▁tension	-8.96906
▁recently	-8.97478
▁migraine	-8.97482
▁2)	-8.97555
▁8	-8.98199
).	-8.98275
jo	-8.98454
▁side	-8.99165
espec	-8.99174
▁work	-8.99188
taneous	-8.99238
▁[**8-/2155**]	-8.99238
▁dyslipidemia	-8.99238
▁retinopathy	-8.99238
▁unchanged	-8.99238
▁dvt	-8.99238
▁atypical	-8.99239
▁cyst	-8.9924
▁echo	-8.99254
▁ankle	-8.99265
▁manifestation	-8.99277
▁epileptic	-8.99281
▁attending	-8.99363
▁melena	-8.99537
▁pea	-8.99546
▁di	-9.0002
▁bas	-9.00113
▁increase	-9.00167
onset	-9.00249
stern	-9.00543
is	-9.00985
▁nt	-9.01017
▁[**214	-9.01137
▁only	-9.019
▁hepat	-9.01938
▁poor	-9.01988
:[**	-9.02095
▁intake	-9.02095
▁precipitate	-9.02095
▁skull	-9.02095
▁transient	-9.02095
▁adjust	-9.02095
▁mrsa	-9.02097
▁hypoxia	-9.021
▁continuous	-9.02103
▁oropharyn	-9.02106
▁difficulty	-9.02117
▁allergies	-9.02123
▁motor	-9.02236
▁dr	-9.02269
▁more	-9.02304
▁59	-9.02838
▁cta	-9.02952
tender	-9.02988
▁preoperative	-9.0306
▁im	-9.03191
▁pulse	-9.03289
▁af	-9.03345
▁maintained	-9.03453
uff	-9.03784
▁ap	-9.04078
▁confirm	-9.04236
▁light	-9.04679
▁sig	-9.04978
▁apnea	-9.05036
▁body	-9.05036
▁cellulitis	-9.05036
▁likelihood	-9.05036
▁meningioma	-9.05036
▁suicid	-9.05036
▁effectively	-9.05036
idual	-9.05036
▁obese	-9.05037
▁eeg	-9.05038
▁laceration	-9.05039
▁vein	-9.0505
▁cell	-9.05059
▁metabolic	-9.05068
fr	-9.05117
▁delayed	-9.05121
ilar	-9.05169
▁modifications	-9.05169
▁constipation	-9.05413
1/	-9.05413
▁70	-9.05536
▁12	-9.05573
▁osteoarthritis	-9.05586
▁demonstrate	-9.05589
▁into	-9.05589
▁sign	-9.05705
ile	-9.05965
side	-9.06103
parenchyma	-9.06116
ions	-9.06126
▁muscle	-9.06277
▁appear	-9.06298
▁adjustment	-9.06312
▁gen	-9.06427
▁0	-9.06624
2)	-9.06815
itis	-9.06978
▁tolerat	-9.0726
ra	-9.07991
▁supplement	-9.08032
solut	-9.08047
▁attempt	-9.08066
▁conjunctiva	-9.08066
▁resuscitation	-9.08066
▁volume	-9.08066
▁ordered	-9.08066
▁tablet	-9.08067
▁resolution	-9.08077
▁most	-9.08085
lessness	-9.08092
▁focus	-9.08144
▁18**]	-9.08177
▁such	-9.0821
▁fractures	-9.08285
▁anesthesia	-9.08433
▁previously	-9.08456
▁through	-9.08495
▁rest	-9.08716
3)	-9.0906
▁se	-9.09186
▁diuretic	-9.09396
▁settings	-9.09482
▁7)	-9.09863
▁them	-9.09934
▁bs	-9.09967
am	-9.10108
min	-9.10319
ch	-9.10338
▁prompt	-9.10962
cogniti	-9.11191
?	-9.11191
▁abscess	-9.11191
▁adequate	-9.11191
▁colitis	-9.11191
▁dilated	-9.11191
▁good	-9.11191
▁bnp	-9.11192
▁[**2150-4-1	-9.11194
▁scheduled	-9.1121
▁pna	-9.11282
dur	-9.11401
▁marked	-9.11487
▁reduced	-9.11556
▁18	-9.11775
▁derma	-9.11829
bar	-9.12297
▁baseline	-9.12458
▁month	-9.12467
ted	-9.12481
cial	-9.12543
▁migraines	-9.13207
ment	-9.14161
▁ascites	-9.14417
▁bacterial	-9.14417
▁calcification	-9.14417
▁comprehensi	-9.14417
▁inferior	-9.14417
▁travel	-9.14417
▁pvd	-9.14418
▁room	-9.14418
▁ckd	-9.14418
patosplenomegaly	-9.14419
▁pleas	-9.14457
▁80	-9.14464
▁night	-9.14485
▁picture	-9.14514
▁mmm	-9.14533
▁sr	-9.14577
25**]	-9.14683
antihypertensive	-9.14732
▁3)	-9.1477
▁starting	-9.1486
▁heal	-9.14948
day	-9.15043
vi	-9.15801
organ	-9.15872
▁lo	-9.15878
▁knee	-9.15987
▁16	-9.16387
▁headaches	-9.16436
▁warrant	-9.16947
um	-9.1706
ely	-9.17166
▁co	-9.1746
▁rapid	-9.17517
-[**	-9.1775
▁gastroparesis	-9.1775
▁angiography	-9.1775
▁benign	-9.1775
▁service	-9.1775
▁data	-9.17751
▁sheath	-9.17751
▁acidosis	-9.17751
▁proceed	-9.17752
▁auto	-9.17752
▁scale	-9.17778
▁ptsd	-9.17782
▁psychiatric	-9.1782
where	-9.17891
▁can	-9.1807
▁nas	-9.18092
acs	-9.1812
▁evaluated	-9.18186
asi	-9.18192
mi	-9.18343
▁tolerated	-9.18646
▁complicat	-9.18647
insulin	-9.19308
location	-9.19427
ul	-9.19454
▁increases	-9.19848
▁peri	-9.20158
▁eyes	-9.20399
▁tests	-9.20487
med	-9.2086
ot	-9.20889
genic	-9.21086
▁manifest	-9.21149
▁bradycardia	-9.21199
▁dementia	-9.21199
▁tentorum	-9.21199
▁therefore	-9.21199
▁unclear	-9.21199
▁near	-9.21201
▁faci	-9.21219
▁sore	-9.21305
▁deteriorated	-9.21327
▁appropriate	-9.21437
to	-9.2156
▁pepti	-9.2157
▁4)	-9.21592
▁fib	-9.21846
▁alcoholic	-9.2187
▁down	-9.21919
▁exp	-9.22104
▁supported	-9.22148
▁around	-9.22307
ge	-9.22478
ate	-9.22489
▁40	-9.22958
▁visit	-9.22974
▁absent	-9.23583
▁develops	-9.23622
lar	-9.23937
cision	-9.24161
▁effect	-9.24322
▁falls	-9.24389
▁affect	-9.24504
▁arteri	-9.24703
tx	-9.2475
ronchi	-9.2477
glycemi	-9.2477
syncopal	-9.2477
▁imbalance	-9.2477
▁slight	-9.24772
▁disorientation	-9.24773
▁lactate	-9.24774
▁dehydration	-9.24775
▁endoscopy	-9.24776
▁prophylaxis	-9.2481
▁emergent	-9.24876
88**]	-9.24897
rach	-9.24916
▁frequent	-9.24947
▁stenting	-9.24959
▁infusion	-9.25119
▁gallops	-9.25158
▁que	-9.25224
▁contributing	-9.25257
75	-9.25266
▁manage	-9.25299
6)	-9.25396
▁pupil	-9.25753
▁"	-9.25937
▁sp	-9.26118
▁reco	-9.26268
+	-9.26312
ill	-9.26395
not	-9.2673
round	-9.27223
tter	-9.27493
▁significantly	-9.27736
ns	-9.28022
▁occu	-9.28107
▁investigate	-9.28299
▁25	-9.28393
]	-9.2844
▁infarct	-9.28455
@	-9.28474
▁attack	-9.28474
▁bruising	-9.28474
▁coccyx	-9.28474
▁reaction	-9.28474
▁regard	-9.28474
▁minimal	-9.28474
▁witness	-9.28474
▁wbc	-9.28475
▁eval	-9.28475
▁gtt	-9.28478
▁planned	-9.28478
▁consolidation	-9.28479
▁along	-9.28488
▁injuries	-9.28515
▁66	-9.28565
▁[**1-1	-9.28624
▁iii	-9.28654
vas	-9.28755
▁21	-9.28769
▁71	-9.28827
▁sur	-9.28931
▁immediately	-9.29099
▁resp	-9.29108
▁incision	-9.29113
▁aicd	-9.29142
▁uti	-9.29702
▁congestion	-9.29765
▁rubs	-9.3013
▁coughing	-9.30245
history	-9.30439
abdominal	-9.30442
▁diagnos	-9.3144
▁concerns	-9.31769
standing	-9.32087
▁compressi	-9.32095
dimer	-9.3232
▁angiogram	-9.3232
▁cholecystectomy	-9.3232
▁claudication	-9.3232
▁crucial	-9.3232
▁floor	-9.3232
▁hematocrit	-9.3232
▁rotat	-9.3232
▁tachypnea	-9.3232
-45%	-9.3232
nstruction	-9.32321
▁code	-9.32321
▁retroperitone	-9.32322
▁morning	-9.32323
▁flutter	-9.32324
▁until	-9.32324
▁gas	-9.32328
▁appearance	-9.32328
ll	-9.32332
▁600	-9.32366
▁abg	-9.32395
▁vigilance	-9.32485
me	-9.32524
-70	-9.32547
▁unknown	-9.32604
▁pulmon	-9.32633
ex	-9.32727
iac	-9.32792
▁numbness	-9.32877
uq	-9.33032
cu	-9.33092
▁vessel	-9.33203
5%	-9.33212
▁rv	-9.33341
arcot	-9.33363
▁caus	-9.33997
distended	-9.34304
tube	-9.34423
▁11	-9.34439
▁75	-9.34518
60	-9.34575
right	-9.34833
▁spine	-9.3487
▁read	-9.35405
▁[**21	-9.35468
▁6)	-9.3552
com	-9.35809
▁drop	-9.35971
tention	-9.36017
only	-9.36024
▁ace	-9.36191
recordi	-9.36315
▁cardiology	-9.3632
▁exercise	-9.3632
▁foley	-9.3632
▁replacement	-9.3632
▁never	-9.3632
▁ideation	-9.3632
▁region	-9.3632
▁size	-9.36322
▁tear	-9.36323
▁presyncope	-9.3633
▁gastritis	-9.36345
terectomy	-9.36374
▁[**213	-9.36379
▁thin	-9.36389
▁diagnoses	-9.36391
▁range	-9.36518
▁uncomplicated	-9.36575
▁bone	-9.36673
▁mak	-9.36844
▁exacerbations	-9.37005
▁persists	-9.37087
▁angio	-9.37551
bs	-9.37556
▁knees	-9.38485
▁appears	-9.38706
▁[**12-2	-9.38892
00	-9.39296
▁question	-9.39492
▁base	-9.39672
noid	-9.39894
▁radiograph	-9.39915
▁times	-9.40076
ible	-9.40167
▁perrl	-9.4033
▁cocaine	-9.40487
▁abrasions	-9.40487
▁address	-9.40487
▁oliguria	-9.40487
▁otherwise	-9.40487
▁rigors	-9.40487
▁simple	-9.40487
▁smoking	-9.40487
▁surgeries	-9.40487
▁sustained	-9.40487
▁uri	-9.40487
▁yesterday	-9.40487
▁sedated	-9.40487
▁clean	-9.40487
▁hypertrophy	-9.4049
▁hip	-9.4049
stiti	-9.40492
▁pcp	-9.40494
▁conducti	-9.40498
▁score	-9.40502
▁decompensation	-9.40505
▁sedation	-9.40506
▁ros	-9.40535
▁pnd	-9.40541
▁progressive	-9.40551
ami	-9.40565
▁colonoscopy	-9.40615
▁fel	-9.40641
▁ivf	-9.40679
▁telemetry	-9.40777
▁gib	-9.40809
thrombocytopenia	-9.40854
z	-9.40972
▁suba	-9.41142
▁worsen	-9.41238
▁cx	-9.41548
ry	-9.41728
▁followed	-9.41942
ca	-9.42217
rt	-9.42355
▁lesion	-9.4309
pa	-9.43158
▁even	-9.43422
▁op	-9.43803
▁wa	-9.44332
▁jaundice	-9.44656
▁100	-9.44692
ology	-9.44738
▁comorbid	-9.44773
▁decompensat	-9.44816
▁97%	-9.44835
▁alternative	-9.44835
▁coagulopathy	-9.44835
▁combin	-9.44835
▁commands	-9.44835
▁contraindicat	-9.44835
▁crackles	-9.44835
▁flowsheet	-9.44835
▁hematuria	-9.44835
▁impairment	-9.44835
▁improving	-9.44835
▁pathology	-9.44835
▁patent	-9.44835
licit	-9.44835
▁presum	-9.44836
▁bili	-9.44842
▁rhonchi	-9.44842
▁hypotensive	-9.44844
▁intolerance	-9.44849
▁hct	-9.44849
▁hepatitis	-9.44852
▁progression	-9.4487
▁convulsion	-9.4488
▁57	-9.44949
▁open	-9.44964
▁temporal	-9.44967
▁83	-9.44973
▁radi	-9.44976
▁nerve	-9.45016
▁36	-9.45027
▁free	-9.45142
▁recommended	-9.45216
if	-9.45242
37/	-9.45343
▁obtained	-9.45398
ii	-9.45405
▁cn	-9.45423
pending	-9.45527
▁records	-9.45597
▁causes	-9.4565
eut	-9.45798
▁optimiz	-9.45827
▁postoperatively	-9.46525
sis	-9.46664
fol	-9.47094
56	-9.47126
▁adjustments	-9.47441
severe	-9.47497
left	-9.475
type	-9.4754
▁drug	-9.47562
cause	-9.47572
every	-9.47775
▁continues	-9.4791
▁position	-9.48345
▁counsel	-9.48375
▁consult	-9.48483
▁foc	-9.48623
▁pains	-9.48667
oid	-9.49012
led	-9.49201
ies	-9.49328
▁opaci	-9.49375
▁aneurysm	-9.4938
▁before	-9.4938
▁blurr	-9.4938
▁criteria	-9.4938
▁prescribed	-9.4938
▁speech	-9.4938
▁strength	-9.4938
▁hypothyroidism	-9.49381
▁distension	-9.49382
▁131/	-9.49386
rising	-9.49455
ob	-9.49458
▁bruits	-9.49507
▁[**11-	-9.49577
▁sick	-9.49662
▁biopsy	-9.49673
▁esophagus	-9.49677
▁disposition	-9.49737
▁spa	-9.49766
genital	-9.49843
nd	-9.5027
▁asymptomatic	-9.50308
▁>	-9.51056
▁decline	-9.51383
▁effects	-9.51666
▁nd	-9.51884
dle	-9.52126
ptca	-9.52174
▁us	-9.52229
baseline	-9.52232
impression	-9.52247
weight	-9.52276
▁symptom	-9.52403
▁manag	-9.52481
▁mitigate	-9.52527
an	-9.52983
▁prop	-9.53681
▁vs	-9.53826
▁successful	-9.53912
▁trans	-9.53951
ortable	-9.5404
▁ms	-9.54124
▁agitation	-9.54142
▁measurements	-9.54142
▁study	-9.54142
▁sudden	-9.54142
▁access	-9.54142
▁gait	-9.54142
▁foot	-9.54142
▁palpable	-9.54142
▁comments	-9.54142
▁determine	-9.54142
▁minutes	-9.54151
▁150	-9.54167
▁ba	-9.54172
▁outpatient	-9.54184
▁ich	-9.54216
▁probable	-9.54224
▁radiographic	-9.54424
mmunocompromised	-9.54476
▁fx	-9.54489
▁localiz	-9.54724
▁rr	-9.55154
▁educat	-9.5539
gen	-9.55429
▁inr	-9.57077
controlled	-9.57214
hypertension	-9.57259
date	-9.57287
▁movement	-9.57328
▁plans	-9.57329
▁tremor	-9.57369
▁complication	-9.57436
▁tu	-9.5794
▁30	-9.5815
▁part	-9.58381
▁clinic	-9.58489
▁55	-9.58512
pre	-9.58593
▁ind	-9.58686
9%	-9.58757
omegaly	-9.59002
per	-9.59012
▁apprecia	-9.59128
strict	-9.59138
arthritis	-9.59139
▁[**12-11**]	-9.59142
▁again	-9.59142
▁chemotherapy	-9.59142
▁dilatation	-9.59142
▁diplopia	-9.59142
▁hydrocephalus	-9.59142
▁lith	-9.59142
▁plavix	-9.59142
▁resistance	-9.59142
▁tamponade	-9.59142
▁sensation	-9.59142
▁stricture	-9.59142
▁[**2143-7-	-9.59144
▁mode	-9.59148
▁myeloma	-9.59153
▁pal	-9.59181
fication	-9.59195
face	-9.59214
▁78	-9.59221
▁egd	-9.59244
traction	-9.59246
▁48	-9.59251
ful	-9.59274
▁contact	-9.59294
▁respond	-9.59295
▁voice	-9.59295
▁pmhx	-9.59377
▁lv	-9.59435
vag	-9.59662
▁33	-9.59734
ella	-9.5978
▁anticipat	-9.59896
▁explain	-9.59997
cent	-9.60004
mia	-9.6081
▁tremors	-9.60947
▁58	-9.61137
ba	-9.61274
▁55-	-9.61445
**]	-9.61663
▁om	-9.61828
low	-9.61901
▁cm	-9.61971
▁hd	-9.61987
▁conditions	-9.62398
▁off	-9.62485
>	-9.62492
▁rub	-9.62646
▁culture	-9.62661
uffi	-9.6267
▁met	-9.62924
ef	-9.63176
▁addition	-9.63321
▁neurologic	-9.63693
nger	-9.63729
▁abnormal	-9.64349
▁[**4-2	-9.64378
clonic	-9.64393
▁[**2176-8-	-9.644
▁colon	-9.64404
▁allergy	-9.64405
▁apparent	-9.64405
▁childhood	-9.64405
▁dialysis	-9.64405
▁hemodialysis	-9.64405
▁insertion	-9.64405
▁musculoskeletal	-9.64405
▁rehabilitation	-9.64405
▁remission	-9.64405
▁tracheostomy	-9.64405
▁transition	-9.64405
▁bipap	-9.64405
versus	-9.64405
▁dissection	-9.64406
existing	-9.64407
▁aki	-9.64408
▁cataracts	-9.64408
▁rib	-9.64408
▁ppi	-9.64409
▁thus	-9.64411
▁tonic	-9.64438
nish	-9.6445
▁[**2174**]	-9.64597
sdh	-9.64637
▁supportive	-9.64716
wards	-9.64736
▁ngt	-9.64751
▁pa	-9.64939
▁excluded	-9.65046
▁questioning	-9.65683
▁39	-9.65733
▁immunosuppressi	-9.65829
▁toward	-9.65852
▁see	-9.6589
▁hu	-9.66378
▁disc	-9.66462
ula	-9.66596
▁worsens	-9.66653
20	-9.67168
▁ser	-9.67479
focal	-9.67994
therap	-9.6805
systolic	-9.68075
discharge	-9.68077
cardiac	-9.68077
▁rect	-9.68151
▁steroid	-9.68158
pro	-9.68165
▁check	-9.6818
▁bypas	-9.68219
▁goi	-9.68641
inary	-9.68762
7)	-9.68893
ventric	-9.68967
▁expresse	-9.69032
nodul	-9.69237
ance	-9.69377
▁lat	-9.69489
▁fr	-9.69595
2-3**]	-9.69887
erative	-9.69898
lafb	-9.69961
▁[**3-/2161**]	-9.69961
▁[**6-/2155**])	-9.69961
▁appendectomy	-9.69961
▁cardiomegaly	-9.69961
▁ecchymosis	-9.69961
▁impaired	-9.69961
▁lethargy	-9.69961
▁mucosa	-9.69961
▁neurology	-9.69961
cycline	-9.69961
▁next	-9.69961
▁palpation	-9.69961
▁physician	-9.69961
▁eomi	-9.69961
▁exists	-9.69961
▁hcv	-9.69963
▁overall	-9.6997
▁superi	-9.69974
▁gau	-9.69974
▁person	-9.69983
thra	-9.69992
▁percu	-9.70013
▁walk	-9.70027
▁malignancy	-9.70059
▁arteries	-9.70068
▁adherence	-9.70131
▁below	-9.70245
▁consideration	-9.70257
▁evolving	-9.70276
▁age	-9.70406
▁late	-9.70708
▁k	-9.70715
▁transplant	-9.70747
osa	-9.71329
7-	-9.71333
▁areas	-9.71585
ri	-9.72038
▁pending	-9.72483
▁testing	-9.72583
lor	-9.72829
112**]	-9.73163
ssis	-9.73211
▁dp	-9.73349
▁62	-9.73451
▁bi	-9.73737
disc	-9.73868
immune	-9.73881
"	-9.73928
▁rais	-9.73995
▁ground	-9.74395
end	-9.74451
via	-9.74585
symptomatic	-9.74655
osis	-9.74855
▁feel	-9.7487
▁later	-9.75101
▁valv	-9.75105
▁observe	-9.75675
▁probab	-9.75763
▁[**6-1	-9.75785
ipl	-9.75841
cysteine	-9.75843
▁crisis	-9.75843
▁gentleman	-9.75843
▁groin	-9.75843
▁leaflet	-9.75843
▁rheumat	-9.75843
▁technique	-9.75843
▁uneventful	-9.75843
▁urgency	-9.75843
▁vestibul	-9.75843
▁overnight	-9.75843
▁pattern	-9.75843
▁gain	-9.75843
6-7-	-9.75843
▁life	-9.75844
▁cpap	-9.75844
▁mouth	-9.75846
▁anticoagulated	-9.75847
▁ambulation	-9.75847
▁ears	-9.7585
radiating	-9.75859
20%	-9.75868
▁ards	-9.75875
▁operation	-9.75909
lectrocardiogram	-9.75925
▁110	-9.75944
▁creat	-9.76
▁hyperthermia	-9.76024
▁ambulating	-9.76061
▁ref	-9.76115
▁extreme	-9.76237
▁dx	-9.76361
▁[**12-	-9.76396
▁involv	-9.76429
phen	-9.76654
▁sweats	-9.76874
ologist	-9.77093
oke	-9.77234
blockers	-9.77375
▁sw	-9.77536
▁checks	-9.77767
air	-9.77924
▁progressed	-9.77934
▁lateral	-9.78023
▁correlat	-9.78133
▁cleared	-9.78544
diness	-9.78585
tyl	-9.78676
▁nc	-9.78727
▁sh	-9.78852
▁er	-9.79425
ard	-9.79438
8)	-9.79856
angio	-9.80175
esophag	-9.80195
gerd	-9.80195
▁arrhythmias	-9.80231
cc	-9.80279
▁nsaid	-9.80296
▁infiltrate	-9.80341
▁interventions	-9.80458
▁bed	-9.80625
5/	-9.80737
▁j	-9.80762
▁electrolytes	-9.80801
very	-9.8114
fusion	-9.81142
▁intraven	-9.81158
▁expect	-9.81237
▁obtain	-9.81281
▁document	-9.81294
gan	-9.81448
▁involve	-9.81462
nt	-9.81511
ow	-9.81591
ure	-9.81769
nal	-9.81918
optimal	-9.82059
▁exacerbat	-9.82063
▁discuss	-9.82076
30	-9.82081
▁fail	-9.82088
▁amount	-9.82093
▁aorta	-9.82093
▁appointment	-9.82093
▁approach	-9.82093
▁carcinoma	-9.82093
▁endocarditis	-9.82093
▁eruption	-9.82093
▁filter	-9.82093
▁glaucoma	-9.82093
▁instead	-9.82093
▁opioid	-9.82093
▁photophobia	-9.82093
▁polydipsia	-9.82093
▁polyuria	-9.82093
▁proximal	-9.82093
▁pruritus	-9.82093
▁similar	-9.82093
▁speak	-9.82093
▁strong	-9.82093
▁tinnitus	-9.82093
▁tired	-9.82093
▁tolerance	-9.82093
▁urinalysis	-9.82093
▁view	-9.82093
▁markers	-9.82094
▁scars	-9.82094
▁resection	-9.82102
▁made	-9.82103
▁titration	-9.82104
▁[**209	-9.82104
▁narrow	-9.82106
▁morbid	-9.8211
▁signif	-9.8211
▁great	-9.82119
▁descending	-9.82171
▁cardioversion	-9.82175
▁tee	-9.82181
▁mediastinal	-9.822
sicu	-9.82365
▁pao	-9.82443
▁chemo	-9.82786
yet	-9.82845
▁problems	-9.82852
▁1+	-9.82998
▁disturbances	-9.83203
ick	-9.83488
▁basal	-9.83502
pical	-9.83548
▁ng	-9.83601
▁area	-9.83647
▁extubation	-9.83699
▁60	-9.83805
▁therap	-9.84002
da	-9.8437
▁pl	-9.84466
▁scant	-9.84813
ther	-9.84823
nid	-9.84834
▁8)	-9.84969
10	-9.85279
▁ha	-9.85377
axi	-9.8605
gi	-9.86163
▁dis	-9.86358
icle	-9.86612
diagnosed	-9.86869
copd	-9.86877
▁14	-9.8689
inter	-9.87042
sh	-9.87173
max	-9.87255
▁lines	-9.87266
▁finding	-9.87334
▁exclud	-9.87948
▁list	-9.88108
▁dri	-9.88196
▁malignan	-9.88463
▁conservative	-9.88528
▁according	-9.88531
▁improve	-9.8858
▁allergi	-9.88692
▁69	-9.88693
▁suspicio	-9.8871
conclusion	-9.8876
nourished	-9.8876
▁[**7-12**]	-9.8876
▁consciousness	-9.8876
▁diuresis	-9.8876
▁hydronephrosis	-9.8876
▁necroti	-9.8876
▁nutrition	-9.8876
▁protection	-9.8876
▁reactive	-9.8876
▁unsteadiness	-9.8876
▁tightness	-9.8876
▁damage	-9.8876
▁suffer	-9.88761
▁gastropathy	-9.88762
▁gums	-9.88764
▁revision	-9.88765
▁[**2187**]	-9.88766
▁enzymes	-9.88767
title	-9.88768
▁finger	-9.88772
▁rather	-9.88776
▁appreciated	-9.88778
ward	-9.88778
▁strain	-9.88787
▁recommendation	-9.88797
nomic	-9.88812
▁inhaler	-9.88846
▁extra	-9.88869
abs	-9.88891
▁veh	-9.88914
▁thyroid	-9.88966
posed	-9.89011
▁revers	-9.89078
▁mcg	-9.89103
▁orbit	-9.89105
▁drip	-9.89152
rning	-9.89246
▁bip	-9.89262
▁agents	-9.89448
▁heparin	-9.89551
▁cea	-9.8957
▁16)	-9.89612
▁85	-9.89623
▁bladder	-9.89645
▁partial	-9.89806
▁ptx	-9.90078
▁perfusion	-9.90081
▁depressi	-9.90141
▁tri	-9.90175
▁pelvis	-9.90201
oll	-9.90378
▁occurs	-9.90418
▁except	-9.90468
ink	-9.9083
▁9)	-9.90876
▁ke	-9.90924
ntly	-9.90974
oxic	-9.91293
▁[**217	-9.91548
▁osteop	-9.91857
▁cont	-9.91868
▁utis	-9.92015
ew	-9.92313
▁location	-9.92667
2-12	-9.92804
nuria	-9.93301
▁cor	-9.93877
vertebra	-9.93922
pulmonary	-9.9402
br	-9.94032
▁start	-9.94112
▁depress	-9.94177
5)	-9.94251
blocker	-9.94502
tri	-9.94523
▁occur	-9.94838
▁hour	-9.94884
▁cer	-9.94885
▁contribut	-9.94918
49	-9.95428
prol	-9.95672
▁ph	-9.95769
icd	-9.95778
served	-9.95885
headedness	-9.95891
▁nad	-9.95901
=	-9.95902
/[**	-9.95902
bilirubinemia	-9.95903
cholesterolemia	-9.95903
▁54267**]	-9.95903
▁anasarca	-9.95903
▁cannula	-9.95903
▁characterize	-9.95903
▁collection	-9.95903
▁comorbidities	-9.95903
▁conclude	-9.95903
▁deformities	-9.95903
▁diverticulitis	-9.95903
▁frequency	-9.95903
▁gross	-9.95903
▁limited	-9.95903
▁necessary	-9.95903
▁purulen	-9.95903
▁vancomycin	-9.95903
▁[**2177-8-	-9.95903
▁screen	-9.95903
▁sharp	-9.95903
▁meet	-9.95903
lux	-9.95903
▁ciw	-9.95903
▁him	-9.95903
▁fio	-9.95904
▁six	-9.95905
▁deterioration	-9.95909
plated	-9.95909
▁avoid	-9.95911
stem	-9.95923
▁peep	-9.95927
▁occurred	-9.95936
▁accompan	-9.95946
▁ceftriaxone	-9.95984
▁sodium	-9.96125
▁doe	-9.962
▁detected	-9.9624
▁13)	-9.96278
▁oxygenation	-9.96312
▁para	-9.96351
▁twi	-9.96395
ious	-9.96433
▁14)	-9.96453
▁[**212	-9.96499
nat	-9.96517
▁toxicity	-9.96563
▁dropp	-9.96598
▁11)	-9.96847
▁38	-9.96933
▁12)	-9.96941
▁wide	-9.96985
▁pale	-9.97193
▁10)	-9.97248
▁additional	-9.97406
▁endo	-9.97412
▁counseling	-9.97524
▁signal	-9.97553
▁dee	-9.97708
pid	-9.9786
xic	-9.9802
ical	-9.98336
▁comp	-9.98592
4**])	-9.98695
nc	-9.98869
▁min	-9.98882
rea	-9.99033
scom	-9.99153
▁indicati	-9.99155
fa	-9.99243
dl	-9.99419
ctic	-9.99532
▁distended	-9.99544
▁ams	-9.99859
done	-9.99951
▁muscles	-10.0035
▁parenchyma	-10.0076
▁[**2-2	-10.0109
73	-10.0115
except	-10.0165
extubation	-10.0165
lad	-10.017
cervical	-10.017
&	-10.017
cabg	-10.0171
surgery	-10.0171
▁origin	-10.0177
▁factor	-10.0184
bi	-10.0197
▁reduc	-10.0201
11	-10.0212
ties	-10.0218
ime	-10.0246
▁av	-10.0269
59	-10.0277
▁predispos	-10.0277
inc	-10.0285
procedur	-10.0286
iz	-10.0294
▁cvs	-10.0304
77	-10.033
▁spontaneous	-10.0336
▁anesthesi	-10.0349
▁[**1-	-10.0351
verse	-10.0351
▁second	-10.0357
▁symmetric	-10.0358
▁gag	-10.0359
▁laparoscop	-10.0359
moses	-10.0359
▁agitated	-10.0359
▁albuterol	-10.0359
▁angioplasty	-10.0359
▁antibody	-10.0359
▁approximately	-10.0359
▁concurrent	-10.0359
▁constitutional	-10.0359
▁delivery	-10.0359
▁etiologies	-10.0359
▁incidental	-10.0359
▁interpreter	-10.0359
▁obvious	-10.0359
▁pancytopenia	-10.0359
▁production	-10.0359
▁protocol	-10.0359
▁pseudomona	-10.0359
▁refractory	-10.0359
▁routine	-10.0359
▁season	-10.0359
▁secretions	-10.0359
▁steady	-10.0359
▁sternotomy	-10.0359
▁trigger	-10.0359
▁withdrawal	-10.0359
▁achiev	-10.0359
▁deformity	-10.0359
▁iddm	-10.0359
▁products	-10.0359
▁represent	-10.0359
▁structural	-10.0359
▁bibas	-10.036
▁nephrotoxic	-10.036
septal	-10.036
▁enlargement	-10.036
▁05:	-10.036
wake	-10.036
▁held	-10.036
▁decompression	-10.0361
▁sbp	-10.0361
▁midline	-10.0361
▁motion	-10.0361
▁hypercapnia	-10.0362
▁externa	-10.0362
▁taken	-10.0362
▁undergo	-10.0363
▁nebulizer	-10.0364
▁percent	-10.0365
▁ctab	-10.0371
▁oment	-10.0378
▁67	-10.038
tach	-10.0383
▁bronchoscopy	-10.0384
pci	-10.0385
▁accordingly	-10.0386
▁pad	-10.0387
▁endocrine	-10.0387
▁heme	-10.0393
▁main	-10.0399
▁flank	-10.04
▁ecc	-10.0414
ache	-10.0436
▁sa	-10.0437
▁ileus	-10.0463
▁gastro	-10.0475
▁'[**	-10.0479
xii	-10.0486
barre	-10.0489
▁shu	-10.053
30**]	-10.0538
▁46	-10.0568
▁nsaids	-10.0587
15)	-10.0611
15**]	-10.0614
oth	-10.0617
yh	-10.0655
enia	-10.0714
▁250	-10.0747
▁visits	-10.0766
▁grafting	-10.0795
▁amt	-10.0812
▁tone	-10.0825
▁diuretics	-10.0826
mm	-10.0864
form	-10.0887
▁wi	-10.0891
▁19	-10.0893
▁sent	-10.0908
▁opti	-10.093
▁stern	-10.0943
ning	-10.0944
46	-10.0945
oh	-10.0963
ian	-10.0967
redo	-10.0971
68**]	-10.0982
▁needs	-10.0984
patient	-10.0997
vessel	-10.1
ventilator	-10.1003
trauma	-10.1004
with	-10.1005
▁shift	-10.1009
▁pelvi	-10.1016
39	-10.1019
read	-10.1023
spine	-10.1027
wn	-10.1078
stent	-10.1084
▁decreas	-10.1113
rosis	-10.1131
uch	-10.1162
▁emerge	-10.1167
▁critical	-10.1169
▁compromise	-10.1175
thromb	-10.1179
▁worse	-10.1186
▁different	-10.1191
▁atherosclero	-10.1193
▁heavy	-10.1193
▁[**2165-4-2	-10.1193
▁asterixis	-10.1193
▁communication	-10.1193
▁defect	-10.1193
▁diaphoretic	-10.1193
▁emerging	-10.1193
▁environment	-10.1193
▁essential	-10.1193
▁firm	-10.1193
▁gradual	-10.1193
▁gram	-10.1193
▁impact	-10.1193
▁incontinence	-10.1193
▁interview	-10.1193
▁kyphosis	-10.1193
▁minimiz	-10.1193
▁pressors	-10.1193
▁profound	-10.1193
▁remote	-10.1193
▁scoliosis	-10.1193
▁suction	-10.1193
▁thir	-10.1193
▁warfarin	-10.1193
▁xanthomas	-10.1193
▁anxious	-10.1193
▁beyond	-10.1193
▁sluggish	-10.1193
▁child	-10.1193
▁cipro	-10.1193
▁dilation	-10.1193
hypophosphatemia	-10.1193
▁device	-10.1193
▁dosage	-10.1193
▁infant	-10.1193
▁aura	-10.1193
▁keep	-10.1193
▁meningitis	-10.1193
▁mother	-10.1193
▁referr	-10.1194
▁diff	-10.1194
▁fibrosis	-10.1194
▁radiologist	-10.1194
▁bro	-10.1194
▁lvef	-10.1194
▁involvement	-10.1194
iatr	-10.1194
▁arf	-10.1195
▁[**10/217	-10.1196
▁four	-10.1197
▁health	-10.1198
▁sah	-10.1199
dama	-10.1199
▁put	-10.12
▁abnormality	-10.1202
▁break	-10.1202
ut	-10.1202
▁[**2181	-10.1204
▁thromboly	-10.1207
▁tid	-10.1207
ictal	-10.1208
▁74	-10.121
ark	-10.1212
▁hepatom	-10.1214
-9-2	-10.1221
ud	-10.1226
▁tf	-10.1231
▁fasting	-10.1233
▁investigated	-10.1233
▁successfully	-10.1234
▁masses	-10.1239
▁eg	-10.1239
hg	-10.1248
▁stones	-10.1249
▁promptly	-10.1256
▁bronchodilators	-10.1264
▁prbcs	-10.1264
▁ambulate	-10.1268
▁duct	-10.1289
▁hold	-10.129
▁52	-10.1296
15-	-10.1301
sf	-10.1302
uth	-10.1313
▁pod	-10.1318
tial	-10.1332
103	-10.1341
of	-10.1352
▁contusions	-10.136
▁17	-10.1377
▁lac	-10.1384
▁hypox	-10.1396
avr	-10.1401
▁compar	-10.1419
cm	-10.1451
trache	-10.1452
▁sun	-10.1455
▁steroids	-10.1473
▁lympho	-10.1478
▁lt	-10.1494
▁immune	-10.1505
▁mo	-10.1534
▁rec	-10.1539
rous	-10.1577
▁tr	-10.1592
▁art	-10.1606
ox	-10.1628
▁hypo	-10.1695
▁sco	-10.17
line	-10.1701
▁cu	-10.1793
▁lymph	-10.1798
▁demonstrat	-10.1801
0,	-10.1823
ffective	-10.183
ied	-10.1831
echocardiography	-10.1852
200	-10.1899
58	-10.1906
risk	-10.1907
down	-10.1911
recently	-10.1912
breath	-10.1913
chronic	-10.1914
▁clinically	-10.1915
▁bka	-10.1919
▁persist	-10.192
▁contusion	-10.1922
time	-10.1929
▁183	-10.1971
▁vomit	-10.2005
▁recommend	-10.2016
▁block	-10.2046
▁emboli	-10.2073
ably	-10.2082
opiate	-10.2098
version	-10.21
umbil	-10.2101
specific	-10.2102
hodgkin	-10.2102
}	-10.2102
▁anhedonia	-10.2102
▁degree	-10.2102
▁desaturation	-10.2102
▁diverticulosis	-10.2102
▁doppler	-10.2102
▁empyema	-10.2102
▁intoxication	-10.2102
▁normocephalic	-10.2102
▁staphylococc	-10.2102
▁tunnel	-10.2102
▁urgent	-10.2102
▁values	-10.2102
▁spur	-10.2102
▁femur	-10.2102
▁prophyla	-10.2102
▁stump	-10.2102
▁supra	-10.2102
/44	-10.2102
▁difficulties	-10.2102
ught	-10.2102
▁shunt	-10.2103
▁picc	-10.2103
▁vaso	-10.2103
▁extension	-10.2103
▁features	-10.2104
microbi	-10.2104
▁deteriorates	-10.2105
▁occlusion	-10.2105
▁stra	-10.2106
▁stating	-10.2106
▁described	-10.2106
▁extend	-10.2106
▁neutropenia	-10.2107
▁taper	-10.2108
▁[**6-13**]	-10.2111
▁arrival	-10.2112
▁hyperkalemia	-10.2113
▁labile	-10.2115
▁nondistended	-10.2117
▁call	-10.2119
▁98	-10.212
▁restriction	-10.2121
▁76	-10.2123
▁fat	-10.2134
▁11:0	-10.2136
▁bolus	-10.2137
▁ccu	-10.2147
▁embolic	-10.216
31**]	-10.2161
ability	-10.2169
▁fluctuati	-10.2204
60%	-10.221
▁insp	-10.221
▁gl	-10.2212
imi	-10.2226
▁lact	-10.2244
▁extubat	-10.2244
sone	-10.2262
ister	-10.2287
ccy	-10.2313
▁acquir	-10.2333
▁necessitate	-10.2346
▁echocardiograph	-10.2358
oactive	-10.2365
▁pylo	-10.2374
cho	-10.2431
2-2**]	-10.2502
▁ptca	-10.2525
▁bases	-10.2535
▁disorders	-10.2564
90	-10.2581
rb	-10.2584
▁ill	-10.2605
▁et	-10.262
lin	-10.2691
▁correlate	-10.2799
fib	-10.2803
▁fla	-10.2813
▁record	-10.284
▁pac	-10.2848
▁mov	-10.2864
▁under	-10.2868
oral	-10.2893
perfusion	-10.2911
osteoarthritis	-10.2911
cardiomyopathy	-10.2912
lateral	-10.2912
obesity	-10.2912
grade	-10.2913
flow	-10.2913
initial	-10.2913
associat	-10.2913
pressure	-10.2913
iv	-10.2915
sinus	-10.2915
▁disturbance	-10.2923
▁extubate	-10.2945
pm	-10.2956
sfa	-10.2988
less	-10.2998
▁make	-10.2999
rv	-10.3011
▁nurs	-10.3024
▁cortic	-10.3026
▁54	-10.3064
▁neuropath	-10.3071
▁hydr	-10.3097
▁[**10/21	-10.3099
▁flu	-10.3099
▁bilat	-10.3102
omerulonephritis	-10.3102
▁8917	-10.3102
▁[**2188-5-13**]	-10.3102
▁antibodies	-10.3102
▁arthroscopy	-10.3102
▁between	-10.3102
▁bronchospasm	-10.3102
▁cholesterol	-10.3102
▁circumflex	-10.3102
▁deficiency	-10.3102
▁diaphoresis	-10.3102
▁dressing	-10.3102
▁favor	-10.3102
▁hypokinesis	-10.3102
▁improbable	-10.3102
▁limb	-10.3102
▁maintenance	-10.3102
▁metformin	-10.3102
▁parietal	-10.3102
▁precautions	-10.3102
▁prematurity	-10.3102
▁puncture	-10.3102
▁sequela	-10.3102
▁spirometry	-10.3102
▁standpoint	-10.3102
▁subluxation	-10.3102
▁swallowing	-10.3102
▁taking	-10.3102
▁ultimately	-10.3102
▁cholecystitis	-10.3102
▁icteric	-10.3102
▁thicken	-10.3102
▁tingling	-10.3102
▁coag	-10.3102
▁definitive	-10.3102
▁keppra	-10.3102
▁vanc	-10.3102
▁transamin	-10.3102
▁girth	-10.3102
collar	-10.3102
▁display	-10.3102
▁cbd	-10.3102
▁phase	-10.3102
▁[**8-10**]	-10.3102
▁eventual	-10.3102
▁arch	-10.3103
▁athero	-10.3103
lima	-10.3103
▁tachy	-10.3103
▁npo	-10.3103
▁visib	-10.3103
▁umbilic	-10.3104
▁suppos	-10.3104
▁help	-10.3105
▁discussion	-10.3105
cephalic	-10.3108
▁spike	-10.3109
▁pack	-10.311
▁empiric	-10.3112
▁single	-10.3114
▁gout	-10.3116
labored	-10.3118
▁acetaminophen	-10.3122
87**]	-10.3124
▁strep	-10.3125
▁nontender	-10.3125
93**]	-10.3125
formation	-10.313
▁conservatively	-10.3137
hepati	-10.3139
▁flat	-10.3139
transfusion	-10.314
bb	-10.3141
▁gua	-10.3147
47)	-10.3147
▁id	-10.3149
▁mentioned	-10.3155
▁platelet	-10.3155
▁13	-10.3161
▁petechiae	-10.3163
▁mag	-10.3165
▁101	-10.3176
kg	-10.3179
▁slow	-10.3183
ank	-10.32
▁indicators	-10.3209
▁asth	-10.3227
▁60-	-10.3231
ays	-10.3243
▁corticosteroids	-10.3248
▁pfi	-10.3261
▁requirements	-10.3268
-60	-10.3306
▁worsened	-10.3308
▁flow	-10.3313
zing	-10.3348
▁vertebra	-10.339
▁tre	-10.3398
60**]	-10.3404
▁ju	-10.3414
titis	-10.3434
etal	-10.346
▁movements	-10.3486
▁cam	-10.3491
▁drugs	-10.3526
▁la	-10.3548
▁returned	-10.3558
▁cns	-10.3594
fra	-10.3603
ker	-10.3617
▁ever	-10.3714
▁overt	-10.3772
q	-10.3817
▁tender	-10.3825
▁get	-10.3861
nx	-10.3907
our	-10.3915
▁sch	-10.3926
▁optimize	-10.3955
ative	-10.3963
▁sat	-10.399
lact	-10.3991
▁[**4-1	-10.4005
like	-10.4014
tension	-10.402
explain	-10.402
#	-10.4026
▁field	-10.403
▁requirement	-10.4037
but	-10.4069
minat	-10.4078
▁spra	-10.411
19**]	-10.4123
▁suspect	-10.4134
nox	-10.4155
ngu	-10.4158
▁congen	-10.4167
▁osteo	-10.4175
4-21**]	-10.4185
▁psychiatr	-10.4189
▁323	-10.4191
▁restricti	-10.4191
▁advise	-10.4196
▁fev	-10.4199
▁inhal	-10.4205
▁statin	-10.4208
pharyng	-10.4209
curs	-10.4209
▁come	-10.421
▁titrat	-10.4211
▁leak	-10.4212
▁electro	-10.4213
ostomy	-10.4213
▁inotrop	-10.4213
lapse	-10.4213
▁[**2177-3-1	-10.4213
▁unresponsive	-10.4213
▁yellow	-10.4213
calcitonin	-10.4213
pyelonephritis	-10.4213
▁[**3-/21	-10.4213
▁advance	-10.4213
▁affirm	-10.4213
▁amlodipine	-10.4213
▁amputation	-10.4213
▁antiepileptic	-10.4213
▁await	-10.4213
▁buttock	-10.4213
▁cardiologist	-10.4213
▁cephalgia	-10.4213
▁challeng	-10.4213
▁coagulation	-10.4213
▁diagonal	-10.4213
▁direct	-10.4213
▁dysphagia	-10.4213
▁elderly	-10.4213
▁epilepsy	-10.4213
▁evident	-10.4213
▁gallstones	-10.4213
▁inconsistent	-10.4213
▁infected	-10.4213
▁insomnia	-10.4213
▁junction	-10.4213
▁mesenter	-10.4213
▁nonreactive	-10.4213
▁pruriti	-10.4213
▁ratio	-10.4213
▁reassess	-10.4213
▁recogniz	-10.4213
▁resolving	-10.4213
▁stiffness	-10.4213
▁tobacco	-10.4213
▁tomorrow	-10.4213
▁track	-10.4213
▁unspecified	-10.4213
▁valvuloplasty	-10.4213
▁antiemetics	-10.4213
▁morphine	-10.4213
▁panel	-10.4213
▁polyps	-10.4213
membrano	-10.4213
▁cavity	-10.4213
▁facility	-10.4213
varian	-10.4213
▁occupation	-10.4213
▁coli	-10.4213
nephritis	-10.4213
▁ogt	-10.4213
▁common	-10.4213
▁vap	-10.4213
▁sclerosis	-10.4213
▁cbc	-10.4214
5-6	-10.4214
1-26**]	-10.4214
▁mask	-10.4214
▁deny	-10.4215
thro	-10.4216
▁hearing	-10.4216
solution	-10.4217
welling	-10.4217
lytes	-10.4218
▁reflexes	-10.4218
▁[**2139	-10.4218
▁140	-10.4219
▁antero	-10.4219
▁obse	-10.4223
▁dys	-10.4223
itant	-10.4224
▁[**7-2	-10.4231
▁discontinue	-10.4237
▁sad	-10.4242
▁severity	-10.4244
▁measures	-10.4246
▁progresses	-10.4248
▁thoracentesis	-10.4249
▁gre	-10.4251
▁29	-10.4253
▁spar	-10.4256
bv	-10.427
▁bun	-10.427
▁five	-10.427
▁28	-10.4273
▁discontinued	-10.4276
cian	-10.4281
▁prostat	-10.4282
39**]	-10.4287
▁xray	-10.4288
▁nurse	-10.43
▁processes	-10.4305
ogenic	-10.4309
ngle	-10.4313
▁entire	-10.4352
tre	-10.4357
▁exc	-10.4377
image	-10.4381
au	-10.4383
▁like	-10.4394
▁fields	-10.4399
tricu	-10.4416
ssa	-10.4417
illary	-10.4418
[**4-12**]	-10.4426
▁regularly	-10.4439
▁bkas	-10.4444
▁108	-10.4471
▁enter	-10.4472
5-1	-10.448
just	-10.4484
istic	-10.451
▁fri	-10.4577
mat	-10.4615
aw	-10.4623
▁bon	-10.4626
▁pred	-10.4702
vir	-10.4722
▁sclerae	-10.4722
ff	-10.4754
23	-10.4783
10**]	-10.48
gm	-10.4807
cular	-10.4825
▁32	-10.4877
▁sca	-10.4882
ova	-10.4971
▁my	-10.4981
ural	-10.5001
▁oc	-10.5032
tox	-10.5051
70	-10.5083
any	-10.5125
50**]	-10.5217
pathy	-10.5222
ana	-10.5257
pfi	-10.5266
'[**	-10.5268
transplant	-10.527
through	-10.5272
back	-10.5274
peripher	-10.5275
was	-10.5277
▁recur	-10.528
▁corticosteroid	-10.5281
cad	-10.5329
muscul	-10.5378
▁treat	-10.5385
▁petechia	-10.5386
▁norm	-10.5393
ase	-10.5401
1-11**]	-10.5435
angu	-10.5438
▁73	-10.5441
▁provide	-10.5445
modynamics	-10.5446
▁integri	-10.5451
cont	-10.5457
▁oppo	-10.5462
revis	-10.5462
▁psych	-10.5463
▁irrita	-10.5463
▁fundoscop	-10.5463
▁psoria	-10.5463
-4-8**]	-10.5463
▁activities	-10.5463
▁adenocarcinoma	-10.5463
▁arthralgias	-10.5463
▁aspirin	-10.5463
▁biomarkers	-10.5463
▁cessation	-10.5463
▁compound	-10.5463
▁effort	-10.5463
▁erosion	-10.5463
▁food	-10.5463
▁fungemia	-10.5463
▁gestation	-10.5463
▁growth	-10.5463
▁hematochezia	-10.5463
▁intoxicated	-10.5463
▁leukemia	-10.5463
▁meningismus	-10.5463
▁metoprolol	-10.5463
▁mobility	-10.5463
▁occluded	-10.5463
▁paramount	-10.5463
▁premature	-10.5463
▁quadrant	-10.5463
▁quit	-10.5463
▁rigidity	-10.5463
▁segment	-10.5463
▁somnolent	-10.5463
▁structures	-10.5463
▁thyromegaly	-10.5463
▁either	-10.5463
▁blind	-10.5463
▁energ	-10.5463
▁[**2149-	-10.5463
contain	-10.5463
▁orthop	-10.5463
▁prn	-10.5463
substance	-10.5463
ubic	-10.5463
▁arise	-10.5463
▁retin	-10.5463
▁tech	-10.5463
▁usual	-10.5463
▁5/5	-10.5463
▁typical	-10.5464
▁rise	-10.5464
▁induction	-10.5464
▁gall	-10.5464
▁glob	-10.5464
▁[**2176-8-30**]	-10.5464
essive	-10.5464
plit	-10.5464
▁splenectomy	-10.5465
▁become	-10.5465
▁color	-10.5465
▁disse	-10.5466
▁nodule	-10.5466
▁step	-10.5467
▁uremi	-10.5467
▁transfusions	-10.5467
▁flare	-10.5468
asa	-10.5468
▁seek	-10.5469
▁stabilized	-10.5469
▁provi	-10.547
▁injections	-10.5471
sional	-10.5471
rml	-10.5472
▁[**2139**]	-10.5474
▁88	-10.5475
▁[**2118	-10.5476
▁lvh	-10.5476
▁integrity	-10.5476
▁vasculitis	-10.5477
▁130	-10.5477
▁ban	-10.5478
▁craniotomy	-10.5478
▁nonfocal	-10.5479
▁50%	-10.5479
▁allow	-10.5479
▁pancreati	-10.548
▁diminished	-10.548
▁provided	-10.5481
47	-10.5481
▁what	-10.5487
bsi	-10.5488
way	-10.5498
▁critically	-10.5499
▁22	-10.5501
▁[**4-21**]	-10.5501
▁lisinopril	-10.5504
▁45	-10.5511
▁wedg	-10.5514
▁jaundiced	-10.5517
rpr	-10.5525
▁glas	-10.5531
▁2,6	-10.5541
spic	-10.5566
▁reduce	-10.5578
▁reversal	-10.5595
(5	-10.5601
▁68	-10.5608
▁term	-10.5609
▁rsb	-10.5628
ways	-10.565
▁recurs	-10.5653
▁[**8	-10.5696
▁190	-10.5697
▁consulted	-10.571
▁comfortabl	-10.572
▁depend	-10.5743
▁shifts	-10.5752
▁bm	-10.5757
▁positioning	-10.5765
▁evening	-10.5781
▁move	-10.5819
going	-10.5866
▁higher	-10.5871
▁afri	-10.5923
▁expressi	-10.5948
▁ulcerati	-10.6075
ong	-10.6093
lm	-10.6125
▁neg	-10.6279
spiro	-10.6315
▁08:	-10.6324
▁42	-10.6329
mod	-10.6456
▁eas	-10.65
and	-10.6524
state	-10.6643
vascular	-10.6661
bladder	-10.6697
constipation	-10.6701
murmur	-10.6701
evaluate	-10.6702
diarrhea	-10.6702
effusions	-10.6702
que	-10.6702
moderate	-10.6703
admitt	-10.6704
whi	-10.6707
extensive	-10.6709
▁problem	-10.6713
▁issue	-10.6717
term	-10.6726
ire	-10.674
ileus	-10.6755
1+	-10.6757
displace	-10.6759
▁splen	-10.6849
olysis	-10.6867
▁attenti	-10.6868
oscopy	-10.6883
myel	-10.6883
▁take	-10.6887
arrow	-10.6889
▁instruct	-10.689
▁grou	-10.6891
*	-10.6891
▁conjuncti	-10.6892
compliance	-10.6892
dilaudid	-10.6892
expansion	-10.6892
vitamin	-10.6892
▁06:0	-10.6892
▁32-34)	-10.6892
▁[**2162-5-	-10.6892
▁appendicitis	-10.6892
▁bloating	-10.6892
▁border	-10.6892
▁bronchiectasis	-10.6892
▁calcium	-10.6892
▁characteristic	-10.6892
▁cramp	-10.6892
▁definite	-10.6892
▁diltiazem	-10.6892
▁epistaxis	-10.6892
▁heartburn	-10.6892
▁hemiplegia	-10.6892
▁hypercalcemi	-10.6892
▁hypoglycemia	-10.6892
▁immobility	-10.6892
▁malalignment	-10.6892
▁marginal	-10.6892
▁neonat	-10.6892
▁nitro	-10.6892
▁occasions	-10.6892
▁parameters	-10.6892
▁profile	-10.6892
▁pursu	-10.6892
▁restarted	-10.6892
▁smoker	-10.6892
▁somnolence	-10.6892
▁staph	-10.6892
▁susceptib	-10.6892
▁synchron	-10.6892
▁tendenc	-10.6892
▁vasodilator	-10.6892
▁vocal	-10.6892
=12	-10.6892
▁96%	-10.6892
simv	-10.6892
triglyceride	-10.6892
▁insult	-10.6892
▁splint	-10.6892
[**8-30**]	-10.6892
▁component	-10.6892
lipoma	-10.6892
percussion	-10.6892
substantia	-10.6892
320**]	-10.6892
▁lift	-10.6892
[**8-29**]	-10.6892
▁coarse	-10.6892
▁costo	-10.6892
▁filled	-10.6892
rush	-10.6892
▁scalp	-10.6892
prosthe	-10.6892
▁averag	-10.6892
▁pvc	-10.6892
▁analgesics	-10.6892
▁perforation	-10.6892
▁infiltrati	-10.6892
▁1-2	-10.6893
▁65	-10.6893
▁pulmonale	-10.6894
▁wind	-10.6894
▁trend	-10.6894
▁[**2153-2-3**]	-10.6894
▁empirically	-10.6894
▁distention	-10.6894
▁inhibitors	-10.6895
▁nsr	-10.6895
▁sensor	-10.6895
▁stability	-10.6895
▁ntnd	-10.6896
▁325	-10.6897
▁myelo	-10.6897
rtun	-10.6897
▁calor	-10.6898
▁water	-10.69
▁///	-10.69
▁hiat	-10.6901
olol	-10.6902
▁40%	-10.6902
parat	-10.6903
▁precede	-10.6907
crf	-10.6907
▁aim	-10.6908
▁clearance	-10.6909
▁55%	-10.691
▁tte	-10.6911
▁seem	-10.6912
▁supplementation	-10.6918
▁compromised	-10.6924
▁exha	-10.6924
▁64	-10.6927
▁radiological	-10.693
▁rvr	-10.6931
▁[**11-2	-10.6931
▁reassuring	-10.6932
▁spontaneously	-10.6937
74**]	-10.6943
▁flap	-10.6947
ach	-10.6953
▁34	-10.6955
▁102	-10.6956
▁ett	-10.6957
ogre	-10.6968
▁asthmatic	-10.6982
▁su	-10.6983
▁beca	-10.6992
hrs	-10.6996
▁mec	-10.7001
ocom	-10.7001
iron	-10.7003
▁gcs	-10.7008
▁radiography	-10.7011
gular	-10.7019
▁recorded	-10.702
1000	-10.7024
kle	-10.7029
▁attention	-10.7029
2:00	-10.7042
nr	-10.7054
▁receive	-10.7068
overdose	-10.7077
▁expected	-10.7098
ok	-10.7105
ightened	-10.7138
sym	-10.7152
▁obt	-10.7202
▁strea	-10.7223
37	-10.7271
self	-10.7285
ibu	-10.7332
▁cat	-10.7339
▁cooperati	-10.7362
chlor	-10.7374
ish	-10.742
▁08:4	-10.7493
▁ir	-10.7515
▁getti	-10.7542
nk	-10.7542
▁tue	-10.7562
▁mention	-10.7682
▁lu	-10.7715
▁compa	-10.7783
tern	-10.7807
rad	-10.8062
▁continu	-10.8079
▁educati	-10.8107
85	-10.8125
▁complet	-10.8179
vid	-10.8208
▁receiv	-10.8254
65-	-10.8264
fu	-10.8265
91**]	-10.8336
heparin	-10.8365
chemo	-10.8366
high	-10.8366
gallops	-10.8367
rubs	-10.8367
anesthesia	-10.8368
melena	-10.8368
[**211	-10.837
vomiting	-10.837
▁stre	-10.8371
cath	-10.8377
tting	-10.8381
▁rever	-10.8383
▁deficit	-10.8384
▁agent	-10.8385
▁sli	-10.84
duct	-10.8406
▁indicator	-10.8415
-14**]	-10.8432
▁evolv	-10.8459
▁detect	-10.8476
▁episod	-10.8479
▁rang	-10.849
▁mark	-10.8495
acent	-10.8525
▁recover	-10.8529
nset	-10.8529
▁jv	-10.8534
scending	-10.8536
-23**]	-10.8546
▁mellit	-10.8547
▁neutropeni	-10.8548
▁yea	-10.855
▁reflex	-10.8551
inhibitor	-10.8555
tatic	-10.8555
▁analgesi	-10.8558
thyroidism	-10.8558
myo	-10.8558
▁anesthe	-10.8558
branch	-10.8558
▁[**2108-4-	-10.8558
[**2191-11-	-10.8558
equiv	-10.8558
partum	-10.8558
sthesias	-10.8558
▁[**2122-10-	-10.8558
▁accumulation	-10.8558
▁acknowledg	-10.8558
▁adhesions	-10.8558
▁appetite	-10.8558
▁approx	-10.8558
▁azithromycin	-10.8558
▁benzene	-10.8558
▁bullae	-10.8558
▁cholangitis	-10.8558
▁circulation	-10.8558
▁delivered	-10.8558
▁diffusion	-10.8558
▁dyspepsia	-10.8558
▁embolus	-10.8558
▁equal	-10.8558
▁fremitus	-10.8558
▁habits	-10.8558
▁hypercoagulab	-10.8558
▁hyperinflation	-10.8558
▁immobilization	-10.8558
▁inadequate	-10.8558
▁insufficient	-10.8558
▁levofloxacin	-10.8558
▁limitation	-10.8558
▁metastatic	-10.8558
▁myelofibrosis	-10.8558
▁necrosis	-10.8558
▁nystagmus	-10.8558
▁plaque	-10.8558
▁pregnancy	-10.8558
▁proteinuria	-10.8558
▁reintubat	-10.8558
▁responsive	-10.8558
▁spells	-10.8558
▁stopped	-10.8558
▁strategies	-10.8558
▁strategy	-10.8558
▁sugar	-10.8558
▁tracing	-10.8558
▁unusual	-10.8558
▁urticaria	-10.8558
▁vasculature	-10.8558
▁1883	-10.8558
▁birth	-10.8558
▁detail	-10.8558
▁normotensive	-10.8558
▁request	-10.8558
▁sedatives	-10.8558
encephaliti	-10.8558
▁crash	-10.8558
▁exceeding	-10.8558
▁film	-10.8558
▁liqu	-10.8558
▁relative	-10.8558
▁nature	-10.8558
sensiti	-10.8558
▁ileostomy	-10.8558
▁pericarditis	-10.8558
▁inspection	-10.8558
▁instance	-10.8558
▁sutur	-10.8558
▁loose	-10.8558
medulla	-10.8558
uously	-10.8558
▁elicited	-10.8558
▁filling	-10.8558
▁feeds	-10.8559
gulation	-10.8559
monia	-10.8559
▁04:	-10.8559
▁aureus	-10.8559
▁align	-10.8559
▁alarm	-10.8559
ware	-10.8559
▁pft	-10.8559
▁eating	-10.8559
▁things	-10.8559
▁office	-10.8559
▁pause	-10.8559
▁tonight	-10.8559
▁5:0	-10.8559
▁pcr	-10.8559
▁duration	-10.8559
▁coordination	-10.8559
▁levo	-10.8559
▁90-1	-10.8559
▁coverage	-10.8559
▁bronchial	-10.856
▁prominen	-10.856
azine	-10.856
▁escalation	-10.856
▁opacities	-10.856
▁leakage	-10.856
▁meals	-10.8561
▁10:1	-10.8561
▁crp	-10.8562
:50	-10.8562
minute	-10.8562
▁hsv	-10.8563
▁discontinuation	-10.8563
▁predominant	-10.8563
9(9	-10.8565
▁[**219	-10.8565
▁hydration	-10.8567
▁adj	-10.8568
▁ensu	-10.8571
▁brisk	-10.8572
▁resume	-10.8574
▁peak	-10.8574
▁warmth	-10.8575
ercp	-10.8575
▁184	-10.8576
▁hand	-10.8576
exploration	-10.8579
lipid	-10.858
▁11:1	-10.8585
▁phle	-10.8585
▁352**]	-10.8588
▁initiate	-10.8593
▁hard	-10.8593
▁band	-10.8595
▁refus	-10.8596
▁space	-10.8596
llness	-10.8599
▁malignanc	-10.8605
▁prox	-10.8609
2-11-3	-10.8615
perrla	-10.8625
▁mandat	-10.8627
▁hol	-10.8632
▁bol	-10.8633
▁subma	-10.8639
▁icp	-10.8651
pda	-10.8654
▁dra	-10.8672
▁far	-10.8674
▁rapidly	-10.8688
▁examin	-10.8711
acti	-10.8731
icol	-10.8739
▁adeno	-10.8744
30%	-10.8878
▁porta	-10.8886
opath	-10.889
▁ten	-10.8971
oxa	-10.8971
lvi	-10.8987
axon	-10.8989
191**]	-10.9153
▁81	-10.9159
adol	-10.9263
nas	-10.9301
lum	-10.9372
▁plac	-10.9421
▁axilla	-10.9626
▁lob	-10.9632
▁79	-10.968
26**]	-10.9747
zi	-10.9754
▁pylor	-10.9953
65%	-10.9962
▁trach	-10.9969
ked	-11.003
anteriorly	-11.004
▁operati	-11.0052
2-3	-11.0075
dose	-11.0095
avi	-11.0251
ntihypertensives	-11.0348
▁[**9-	-11.0363
toxicity	-11.0364
sweats	-11.0365
numbness	-11.0367
cancer	-11.0369
warm	-11.0369
thorac	-11.0369
positive	-11.0369
chills	-11.037
clinical	-11.037
bilateral	-11.0371
complete	-11.0371
hemorrhag	-11.0372
total	-11.0372
hour	-11.0373
lta	-11.0378
▁bronchodilator	-11.0378
▁prbc	-11.0378
▁sweat	-11.038
▁varice	-11.0384
▁discontinu	-11.0391
▁evaluat	-11.04
▁admit	-11.0414
▁fast	-11.0458
▁find	-11.0458
▁attend	-11.0461
▁deteriorat	-11.0469
▁identifi	-11.0478
▁endocrin	-11.0482
▁epilepti	-11.0524
▁territor	-11.0525
▁biops	-11.0527
69	-11.0528
▁convulsi	-11.0535
▁tap	-11.0544
articular	-11.0553
member	-11.0554
▁empha	-11.0555
▁anticoagula	-11.0555
piratory	-11.0556
▁escalat	-11.0556
plication	-11.0557
ography	-11.0557
▁sclero	-11.0557
8-13**]	-11.0558
▁integ	-11.0558
▁thromboemboli	-11.0558
▁phenomen	-11.0558
▁vegetati	-11.0558
distribution	-11.0558
hypovolemia	-11.0558
ontane	-11.0558
tonsillectomy	-11.0558
▁07:1	-11.0558
▁2044	-11.0558
▁[**2121-1	-11.0558
▁adhesive	-11.0558
▁anorexia	-11.0558
▁aspirate	-11.0558
▁assistance	-11.0558
▁ativan	-11.0558
▁auscultated	-11.0558
▁behavior	-11.0558
▁boots	-11.0558
▁brbpr	-11.0558
▁debridement	-11.0558
▁dehiscence	-11.0558
▁diaphragm	-11.0558
▁embolization	-11.0558
▁encounter	-11.0558
▁enhancement	-11.0558
▁exanthem	-11.0558
▁gangli	-11.0558
▁hemostasis	-11.0558
▁hypercarbic	-11.0558
▁identify	-11.0558
▁implant	-11.0558
▁important	-11.0558
▁influenza	-11.0558
▁ligament	-11.0558
▁measuring	-11.0558
▁mobilization	-11.0558
▁nihss	-11.0558
▁nitroglycerin	-11.0558
▁pathologic	-11.0558
▁pharmacologic	-11.0558
▁prodrom	-11.0558
▁quadriplegic	-11.0558
▁quickly	-11.0558
▁removed	-11.0558
▁restraint	-11.0558
▁rigth	-11.0558
▁scarring	-11.0558
▁silhouette	-11.0558
▁specialist	-11.0558
▁staff	-11.0558
▁surveillance	-11.0558
▁taste	-11.0558
▁trouble	-11.0558
▁untreated	-11.0558
▁whatsoever	-11.0558
▁[**2188-5-2	-11.0558
▁[**2193-6-2	-11.0558
▁collapse	-11.0558
▁endarterectomy	-11.0558
▁nephrology	-11.0558
▁paralysis	-11.0558
▁resident	-11.0558
▁[**2199-1	-11.0558
▁explored	-11.0558
clamp	-11.0558
nuous	-11.0558
▁droop	-11.0558
▁zoster	-11.0558
▁stain	-11.0558
▁thrush	-11.0558
▁feet	-11.0558
▁purpur	-11.0558
▁[**2193-	-11.0558
▁preceding	-11.0558
▁relief	-11.0558
▁safe	-11.0558
▁burn	-11.0558
▁alpha	-11.0558
▁gagging	-11.0558
▁root	-11.0558
-96	-11.0559
▁loops	-11.0559
▁lupus	-11.0559
erect	-11.0559
▁torso	-11.0559
▁mean	-11.0559
▁hgb	-11.0559
▁pull	-11.0559
concussi	-11.0559
/45	-11.0559
▁thrombus	-11.0559
▁correction	-11.0559
roids	-11.0559
▁neoplasm	-11.0559
emetic	-11.0559
numer	-11.0559
▁fluctuations	-11.0559
▁jaw	-11.0559
▁stressors	-11.056
▁african	-11.056
▁couple	-11.056
▁bundle	-11.056
▁endors	-11.056
▁hypodensity	-11.056
▁actual	-11.056
▁lives	-11.0561
▁biting	-11.0561
▁house	-11.0561
▁goal	-11.0561
▁cover	-11.0562
▁refill	-11.0562
▁1,0	-11.0562
▁fixation	-11.0562
▁alone	-11.0564
▁fift	-11.0564
capsul	-11.0565
▁134	-11.0565
▁opiates	-11.0567
▁hsm	-11.0567
▁prepare	-11.0567
▁apex	-11.0569
agg	-11.0569
▁aches	-11.0569
[**3-20**]	-11.0569
host	-11.057
▁cautiously	-11.0572
▁dosing	-11.0573
▁cel	-11.0574
aft	-11.0576
▁suboptimal	-11.0576
rican	-11.0577
▁distant	-11.0578
▁transplantation	-11.0579
▁[**2145**]	-11.058
▁fecal	-11.0581
▁359**]	-11.0581
▁itch	-11.0585
▁edge	-11.0586
▁[**2118**]	-11.0586
▁wax	-11.0589
▁dermatologic	-11.059
▁sati	-11.0592
▁territory	-11.0592
oncology	-11.0594
▁case	-11.0604
▁avl	-11.0612
5**]),	-11.0619
▁coronaries	-11.062
▁pil	-11.0627
cellul	-11.0633
▁vent	-11.0636
herpes	-11.0639
amine	-11.0646
68	-11.0655
41-	-11.0656
2-28**]	-11.0713
enha	-11.0742
[**9-3**]	-11.076
22/	-11.0762
4-6	-11.0833
lig	-11.0854
06	-11.0971
idosis	-11.1311
abdom	-11.1378
▁cali	-11.1379
▁clo	-11.157
7/36	-11.1636
/36	-11.1646
▁atria	-11.1711
uria	-11.1728
▁osteopeni	-11.1956
arco	-11.2338
intensity	-11.244
▁comfort	-11.2531
▁magne	-11.2568
218	-11.2671
▁ambulat	-11.2714
▁thalam	-11.2715
▁local	-11.2727
well	-11.2769
piration	-11.2776
fici	-11.2779
spin	-11.2814
syncope	-11.2862
hypo	-11.2866
telemetry	-11.2867
appropriate	-11.2867
infectio	-11.2869
week	-11.2869
contrast	-11.287
neck	-11.287
diastolic	-11.287
nausea	-11.287
negative	-11.287
secondary	-11.287
more	-11.2871
coronar	-11.2871
level	-11.2874
gcs	-11.2876
▁stone	-11.2882
▁myalgia	-11.2884
▁initiat	-11.2896
dislocatio	-11.2928
▁genit	-11.2934
▁delay	-11.2978
strea	-11.2978
▁immun	-11.2982
roduc	-11.2991
▁fina	-11.3018
mph	-11.3022
▁lip	-11.3027
▁resonan	-11.3033
2-9**]	-11.3033
parin	-11.3039
1-21**]	-11.304
▁schedule	-11.3041
▁nebuliz	-11.3043
▁intoleran	-11.3049
▁lightheaded	-11.305
rythema	-11.3053
▁fix	-11.3053
pisodes	-11.3053
▁consist	-11.3053
perido	-11.3055
▁bronch	-11.3055
▁super	-11.3056
trophy	-11.3056
▁hemorrh	-11.3057
▁adju	-11.3057
▁temp	-11.3058
▁frag	-11.3058
▁annu	-11.3058
etroperiton	-11.3058
▁polycy	-11.3058
[**11/2191**]	-11.3058
▁sequest	-11.3058
postop	-11.3058
▁paradoxical	-11.3058
-6-13**]	-11.3058
benzodiazepine	-11.3058
equilibr	-11.3058
evascularization	-11.3058
laparotomy	-11.3058
neumomediastinum	-11.3058
ocytosis	-11.3058
ractor	-11.3058
sensitivity	-11.3058
sequence	-11.3058
vincristine	-11.3058
▁6341	-11.3058
▁[**2177-9-1	-11.3058
▁[**3-9**]	-11.3058
▁accommodat	-11.3058
▁amiodarone	-11.3058
▁analysis	-11.3058
▁argu	-11.3058
▁atropine	-11.3058
▁bereavement	-11.3058
▁burden	-11.3058
▁calcaneus	-11.3058
▁carvedilol	-11.3058
▁cephalalgia	-11.3058
▁chlamydia	-11.3058
▁cholelithiasis	-11.3058
▁circumferen	-11.3058
▁confused	-11.3058
▁deferred	-11.3058
▁deprivation	-11.3058
▁derangements	-11.3058
▁differentiated	-11.3058
▁diverticula	-11.3058
▁doxorubicin	-11.3058
▁echotexture	-11.3058
▁ectop	-11.3058
▁eczema	-11.3058
▁egophony	-11.3058
▁encourag	-11.3058
▁enterocolitis	-11.3058
▁gentamicin	-11.3058
▁gvhd	-11.3058
▁hallucinations	-11.3058
▁hygiene	-11.3058
▁indiscretion	-11.3058
▁individual	-11.3058
▁jejunum	-11.3058
▁maneuver	-11.3058
▁manipulation	-11.3058
▁metatarsal	-11.3058
▁morpholog	-11.3058
▁mycoplasma	-11.3058
▁paracentesis	-11.3058
▁potassium	-11.3058
▁prescription	-11.3058
▁reflect	-11.3058
▁relieve	-11.3058
▁reorientation	-11.3058
▁resected	-11.3058
▁saturday	-11.3058
▁sensitivities	-11.3058
▁stimuli	-11.3058
▁tailor	-11.3058
▁urosepsis	-11.3058
encephalograph	-11.3058
▁bandemia	-11.3058
▁coagulase	-11.3058
▁differentiation	-11.3058
▁distortion	-11.3058
▁duoden	-11.3058
▁unilateral	-11.3058
blockade	-11.3058
▁1416	-11.3058
▁nephrectomy	-11.3058
▁rehab	-11.3058
▁tibia	-11.3058
▁brady	-11.3058
▁stranding	-11.3058
concentrate	-11.3058
retching	-11.3058
▁conducted	-11.3058
▁nail	-11.3058
▁protru	-11.3058
▁exceeds	-11.3058
▁patch	-11.3058
▁worri	-11.3058
▁2435	-11.3058
▁grief	-11.3058
▁strange	-11.3058
▁535	-11.3058
▁[**2107-12-9**]	-11.3058
▁corneal	-11.3058
▁demand	-11.3058
▁265	-11.3058
nuclea	-11.3058
unsuccessful	-11.3058
▁[**2176-	-11.3058
▁skill	-11.3058
▁cream	-11.3058
▁debility	-11.3058
▁pleurisy	-11.3058
imated	-11.3058
▁flight	-11.3058
▁panic	-11.3058
▁fung	-11.3058
▁temporar	-11.3059
▁isolation	-11.3059
▁11:4	-11.3059
▁calves	-11.3059
▁nicu	-11.3059
sirs	-11.3059
▁spasm	-11.3059
▁synd	-11.3059
phosphate	-11.3059
▁nadolol	-11.3059
083	-11.3059
▁hemisphere	-11.3059
6/1	-11.3059
▁fragment	-11.3059
▁fear	-11.306
▁akinesis	-11.306
▁wnl	-11.306
arrhythmi	-11.306
actory	-11.306
▁subacute	-11.3061
occi	-11.3061
azid	-11.3061
cture	-11.3061
▁waves	-11.3061
play	-11.3062
▁5:2	-11.3062
▁mem	-11.3062
▁loud	-11.3062
▁svc	-11.3062
▁emphasiz	-11.3063
pital	-11.3063
▁remember	-11.3064
▁symmetrically	-11.3064
▁mening	-11.3064
▁opposed	-11.3066
▁diuresed	-11.3067
mmary	-11.3067
unning	-11.3069
[**2120-11-15**]	-11.307
dominant	-11.307
▁vesic	-11.307
▁rectum	-11.3071
▁scr	-11.3071
▁neb	-11.3073
▁pacu	-11.3074
rolled	-11.3074
▁100%	-11.3075
▁papill	-11.3075
▁bite	-11.3075
▁heel	-11.3076
▁guid	-11.308
▁[**3-1	-11.3086
▁radiate	-11.3087
apml	-11.3087
bppv	-11.3087
▁[**2152	-11.3094
▁7:2	-11.3097
▁ij	-11.3097
▁comorbidity	-11.3098
3/6	-11.31
▁zo	-11.312
rete	-11.3127
splenomegaly	-11.3134
▁pancrea	-11.3149
romus	-11.3154
yna	-11.317
▁vii	-11.3185
front	-11.3188
recons	-11.3189
ogastr	-11.3192
▁clu	-11.3198
▁hope	-11.3317
▁respirat	-11.3321
▁4:1	-11.3333
thalamus	-11.3414
urinary	-11.356
avm	-11.3823
ropo	-11.3875
halo	-11.4065
▁rectu	-11.4132
oxi	-11.4776
▁declin	-11.4834
▁55-65	-11.528
▁immunosuppress	-11.5408
▁1089	-11.5465
108**]	-11.5607
derm	-11.5623
▁induc	-11.5709
surg	-11.5952
iph	-11.5987
▁barr	-11.6108
▁extrem	-11.6133
▁ventilat	-11.6152
glas	-11.6192
platelet	-11.6195
flank	-11.6197
orbit	-11.6198
mcg	-11.6199
section	-11.62
biopsy	-11.62
frequent	-11.6201
marked	-11.6202
hypoxemi	-11.6203
control	-11.6203
count	-11.6203
bypass	-11.6203
daily	-11.6203
managed	-11.6204
fluid	-11.6204
reported	-11.6204
stroke	-11.6204
significant	-11.6204
who	-11.6205
motor	-11.6205
respiratory	-11.6205
pancreat	-11.6217
▁modification	-11.6217
▁palpitation	-11.6219
▁nerv	-11.6233
▁discharg	-11.6237
▁cereb	-11.6287
▁reassur	-11.6288
▁mechanic	-11.6317
▁mediastin	-11.6326
htn	-11.6332
▁difficult	-11.636
▁primar	-11.6361
cephal	-11.6367
▁cautious	-11.6367
▁esoph	-11.6369
▁mult	-11.6371
ough	-11.6372
▁[**3-2	-11.6372
▁describe	-11.6375
▁resolve	-11.6375
▁elevate	-11.6375
▁hypercapni	-11.6381
▁hyponatremi	-11.6382
▁featur	-11.6385
▁rhonch	-11.6385
▁[**2153-2-	-11.6386
ehydration	-11.6386
remarkable	-11.6388
plain	-11.6389
kinesi	-11.6389
▁coordinat	-11.639
▁constipat	-11.639
hemispher	-11.639
-7-3**]	-11.639
phosph	-11.639
cribe	-11.6391
_	-13.1373
<	-14.1725
~	-14.1726
{	-14.1727
`	-14.1728
[	-14.1729
